{
  "version": "1.0",
  "truncation": null,
  "padding": null,
  "added_tokens": [
    {
      "id": 0,
      "content": "<unk>",
      "single_word": false,
      "lstrip": false,
      "rstrip": false,
      "normalized": false,
      "special": true
    }
  ],
  "normalizer": {
    "type": "NFKC"
  },
  "pre_tokenizer": {
    "type": "Metaspace",
    "replacement": "▁",
    "prepend_scheme": "always",
    "split": true
  },
  "post_processor": null,
  "decoder": {
    "type": "Metaspace",
    "replacement": "▁",
    "prepend_scheme": "always",
    "split": true
  },
  "model": {
    "type": "BPE",
    "dropout": null,
    "unk_token": "<unk>",
    "continuing_subword_prefix": null,
    "end_of_word_suffix": null,
    "fuse_unk": false,
    "byte_fallback": false,
    "ignore_merges": false,
    "vocab": {
      "<unk>": 0,
      "\t": 1,
      "\n": 2,
      "!": 3,
      "\"": 4,
      "#": 5,
      "$": 6,
      "%": 7,
      "&": 8,
      "'": 9,
      "(": 10,
      ")": 11,
      "*": 12,
      "+": 13,
      ",": 14,
      "-": 15,
      ".": 16,
      "/": 17,
      "0": 18,
      "1": 19,
      "2": 20,
      "3": 21,
      "4": 22,
      "5": 23,
      "6": 24,
      "7": 25,
      "8": 26,
      "9": 27,
      ":": 28,
      ";": 29,
      "<": 30,
      "=": 31,
      ">": 32,
      "?": 33,
      "@": 34,
      "A": 35,
      "B": 36,
      "C": 37,
      "D": 38,
      "E": 39,
      "F": 40,
      "G": 41,
      "H": 42,
      "I": 43,
      "J": 44,
      "K": 45,
      "L": 46,
      "M": 47,
      "N": 48,
      "O": 49,
      "P": 50,
      "Q": 51,
      "R": 52,
      "S": 53,
      "T": 54,
      "U": 55,
      "V": 56,
      "W": 57,
      "X": 58,
      "Y": 59,
      "Z": 60,
      "[": 61,
      "\\": 62,
      "]": 63,
      "^": 64,
      "_": 65,
      "`": 66,
      "a": 67,
      "b": 68,
      "c": 69,
      "d": 70,
      "e": 71,
      "f": 72,
      "g": 73,
      "h": 74,
      "i": 75,
      "j": 76,
      "k": 77,
      "l": 78,
      "m": 79,
      "n": 80,
      "o": 81,
      "p": 82,
      "q": 83,
      "r": 84,
      "s": 85,
      "t": 86,
      "u": 87,
      "v": 88,
      "w": 89,
      "x": 90,
      "y": 91,
      "z": 92,
      "{": 93,
      "|": 94,
      "}": 95,
      "~": 96,
      "": 97,
      "": 98,
      "": 99,
      "": 100,
      "¡": 101,
      "¢": 102,
      "£": 103,
      "¤": 104,
      "¥": 105,
      "§": 106,
      "©": 107,
      "«": 108,
      "¬": 109,
      "­": 110,
      "®": 111,
      "°": 112,
      "±": 113,
      "·": 114,
      "»": 115,
      "¿": 116,
      "À": 117,
      "Á": 118,
      "Â": 119,
      "Å": 120,
      "Æ": 121,
      "Ç": 122,
      "È": 123,
      "É": 124,
      "Ì": 125,
      "Î": 126,
      "Ï": 127,
      "Ð": 128,
      "Ó": 129,
      "Õ": 130,
      "Ö": 131,
      "×": 132,
      "Ø": 133,
      "Ù": 134,
      "Ú": 135,
      "Ü": 136,
      "ß": 137,
      "à": 138,
      "á": 139,
      "â": 140,
      "ã": 141,
      "ä": 142,
      "å": 143,
      "æ": 144,
      "ç": 145,
      "è": 146,
      "é": 147,
      "ê": 148,
      "ë": 149,
      "ì": 150,
      "í": 151,
      "î": 152,
      "ï": 153,
      "ð": 154,
      "ñ": 155,
      "ò": 156,
      "ó": 157,
      "ô": 158,
      "ö": 159,
      "÷": 160,
      "ø": 161,
      "ù": 162,
      "ú": 163,
      "ü": 164,
      "ý": 165,
      "þ": 166,
      "ā": 167,
      "ă": 168,
      "ć": 169,
      "ĉ": 170,
      "č": 171,
      "ď": 172,
      "Đ": 173,
      "đ": 174,
      "ē": 175,
      "ė": 176,
      "ě": 177,
      "ğ": 178,
      "ġ": 179,
      "ħ": 180,
      "ī": 181,
      "İ": 182,
      "ı": 183,
      "ķ": 184,
      "ł": 185,
      "ņ": 186,
      "ŋ": 187,
      "ō": 188,
      "ř": 189,
      "Ś": 190,
      "ś": 191,
      "ŝ": 192,
      "Ş": 193,
      "ş": 194,
      "Š": 195,
      "š": 196,
      "Ţ": 197,
      "ţ": 198,
      "ū": 199,
      "ŭ": 200,
      "Ÿ": 201,
      "Ž": 202,
      "ž": 203,
      "ƒ": 204,
      "ơ": 205,
      "ư": 206,
      "Ǒ": 207,
      "ɑ": 208,
      "ɒ": 209,
      "ɔ": 210,
      "ɕ": 211,
      "ə": 212,
      "ɛ": 213,
      "ɡ": 214,
      "ɨ": 215,
      "ɪ": 216,
      "ɾ": 217,
      "ʃ": 218,
      "ʊ": 219,
      "ʒ": 220,
      "ʔ": 221,
      "ʻ": 222,
      "ʾ": 223,
      "ˈ": 224,
      "ˌ": 225,
      "ː": 226,
      "́": 227,
      "̃": 228,
      "̄": 229,
      "̇": 230,
      "̈": 231,
      "̊": 232,
      "̧": 233,
      "͟": 234,
      "ͨ": 235,
      "ͬ": 236,
      "Α": 237,
      "Β": 238,
      "Γ": 239,
      "Δ": 240,
      "Ε": 241,
      "Θ": 242,
      "Ι": 243,
      "Κ": 244,
      "Λ": 245,
      "Μ": 246,
      "Ν": 247,
      "Ο": 248,
      "Π": 249,
      "Σ": 250,
      "Τ": 251,
      "Υ": 252,
      "Φ": 253,
      "Χ": 254,
      "Ψ": 255,
      "Ω": 256,
      "ά": 257,
      "έ": 258,
      "ή": 259,
      "ί": 260,
      "α": 261,
      "β": 262,
      "γ": 263,
      "δ": 264,
      "ε": 265,
      "ζ": 266,
      "η": 267,
      "θ": 268,
      "ι": 269,
      "κ": 270,
      "λ": 271,
      "μ": 272,
      "ν": 273,
      "ξ": 274,
      "ο": 275,
      "π": 276,
      "ρ": 277,
      "ς": 278,
      "σ": 279,
      "τ": 280,
      "υ": 281,
      "φ": 282,
      "χ": 283,
      "ψ": 284,
      "ω": 285,
      "ό": 286,
      "ύ": 287,
      "ώ": 288,
      "І": 289,
      "А": 290,
      "Б": 291,
      "В": 292,
      "Д": 293,
      "Е": 294,
      "Л": 295,
      "М": 296,
      "Р": 297,
      "С": 298,
      "Т": 299,
      "У": 300,
      "Ш": 301,
      "а": 302,
      "б": 303,
      "в": 304,
      "г": 305,
      "д": 306,
      "е": 307,
      "ж": 308,
      "з": 309,
      "и": 310,
      "й": 311,
      "к": 312,
      "л": 313,
      "м": 314,
      "н": 315,
      "о": 316,
      "п": 317,
      "р": 318,
      "с": 319,
      "т": 320,
      "у": 321,
      "х": 322,
      "ц": 323,
      "ч": 324,
      "ш": 325,
      "щ": 326,
      "ы": 327,
      "ь": 328,
      "ю": 329,
      "я": 330,
      "і": 331,
      "ғ": 332,
      "Қ": 333,
      "қ": 334,
      "ң": 335,
      "ү": 336,
      "ә": 337,
      "Ա": 338,
      "ա": 339,
      "դ": 340,
      "ե": 341,
      "զ": 342,
      "ի": 343,
      "կ": 344,
      "հ": 345,
      "ղ": 346,
      "մ": 347,
      "յ": 348,
      "ն": 349,
      "շ": 350,
      "ո": 351,
      "վ": 352,
      "տ": 353,
      "ր": 354,
      "ց": 355,
      "ւ": 356,
      "ք": 357,
      "ְ": 358,
      "ִ": 359,
      "ֵ": 360,
      "ֶ": 361,
      "ַ": 362,
      "ָ": 363,
      "ֹ": 364,
      "ּ": 365,
      "ֽ": 366,
      "ׁ": 367,
      "א": 368,
      "ב": 369,
      "ג": 370,
      "ד": 371,
      "ה": 372,
      "ו": 373,
      "ח": 374,
      "י": 375,
      "כ": 376,
      "ל": 377,
      "ם": 378,
      "מ": 379,
      "ן": 380,
      "נ": 381,
      "ס": 382,
      "ע": 383,
      "פ": 384,
      "צ": 385,
      "ק": 386,
      "ר": 387,
      "ש": 388,
      "ת": 389,
      "،": 390,
      "ء": 391,
      "آ": 392,
      "أ": 393,
      "ؤ": 394,
      "إ": 395,
      "ئ": 396,
      "ا": 397,
      "ب": 398,
      "ة": 399,
      "ت": 400,
      "ث": 401,
      "ج": 402,
      "ح": 403,
      "خ": 404,
      "د": 405,
      "ذ": 406,
      "ر": 407,
      "ز": 408,
      "س": 409,
      "ش": 410,
      "ص": 411,
      "ض": 412,
      "ط": 413,
      "ظ": 414,
      "ع": 415,
      "غ": 416,
      "ـ": 417,
      "ف": 418,
      "ق": 419,
      "ك": 420,
      "ل": 421,
      "م": 422,
      "ن": 423,
      "ه": 424,
      "و": 425,
      "ى": 426,
      "ي": 427,
      "ً": 428,
      "ٌ": 429,
      "ٍ": 430,
      "َ": 431,
      "ُ": 432,
      "ِ": 433,
      "ّ": 434,
      "ْ": 435,
      "ٰ": 436,
      "ٱ": 437,
      "ٹ": 438,
      "پ": 439,
      "چ": 440,
      "ڑ": 441,
      "ژ": 442,
      "ښ": 443,
      "ک": 444,
      "گ": 445,
      "ں": 446,
      "ھ": 447,
      "ہ": 448,
      "ۃ": 449,
      "ی": 450,
      "ې": 451,
      "ے": 452,
      "۔": 453,
      "ހ": 454,
      "ށ": 455,
      "ނ": 456,
      "ރ": 457,
      "ބ": 458,
      "ކ": 459,
      "އ": 460,
      "ވ": 461,
      "މ": 462,
      "ފ": 463,
      "ދ": 464,
      "ތ": 465,
      "ލ": 466,
      "ގ": 467,
      "ސ": 468,
      "ަ": 469,
      "ާ": 470,
      "ި": 471,
      "ީ": 472,
      "ު": 473,
      "ެ": 474,
      "ް": 475,
      "ँ": 476,
      "ं": 477,
      "ः": 478,
      "अ": 479,
      "आ": 480,
      "इ": 481,
      "ई": 482,
      "उ": 483,
      "ऊ": 484,
      "ऋ": 485,
      "ऌ": 486,
      "ऍ": 487,
      "ऎ": 488,
      "ए": 489,
      "ऐ": 490,
      "ऑ": 491,
      "ऒ": 492,
      "ओ": 493,
      "औ": 494,
      "क": 495,
      "ख": 496,
      "ग": 497,
      "घ": 498,
      "ङ": 499,
      "च": 500,
      "छ": 501,
      "ज": 502,
      "झ": 503,
      "ञ": 504,
      "ट": 505,
      "ठ": 506,
      "ड": 507,
      "ढ": 508,
      "ण": 509,
      "त": 510,
      "थ": 511,
      "द": 512,
      "ध": 513,
      "न": 514,
      "ऩ": 515,
      "प": 516,
      "फ": 517,
      "ब": 518,
      "भ": 519,
      "म": 520,
      "य": 521,
      "र": 522,
      "ऱ": 523,
      "ल": 524,
      "ळ": 525,
      "ऴ": 526,
      "व": 527,
      "श": 528,
      "ष": 529,
      "स": 530,
      "ह": 531,
      "ऺ": 532,
      "़": 533,
      "ऽ": 534,
      "ा": 535,
      "ि": 536,
      "ी": 537,
      "ु": 538,
      "ू": 539,
      "ृ": 540,
      "ॄ": 541,
      "ॅ": 542,
      "ॆ": 543,
      "े": 544,
      "ै": 545,
      "ॉ": 546,
      "ॊ": 547,
      "ो": 548,
      "ौ": 549,
      "्": 550,
      "ॐ": 551,
      "॑": 552,
      "॒": 553,
      "॓": 554,
      "॔": 555,
      "ॠ": 556,
      "ॡ": 557,
      "।": 558,
      "॥": 559,
      "॰": 560,
      "ॱ": 561,
      "ॲ": 562,
      "ঁ": 563,
      "ং": 564,
      "ঃ": 565,
      "অ": 566,
      "আ": 567,
      "ই": 568,
      "উ": 569,
      "এ": 570,
      "ও": 571,
      "ক": 572,
      "খ": 573,
      "গ": 574,
      "ঘ": 575,
      "ঙ": 576,
      "চ": 577,
      "ছ": 578,
      "জ": 579,
      "ট": 580,
      "ঠ": 581,
      "ড": 582,
      "ণ": 583,
      "ত": 584,
      "থ": 585,
      "দ": 586,
      "ধ": 587,
      "ন": 588,
      "প": 589,
      "ফ": 590,
      "ব": 591,
      "ভ": 592,
      "ম": 593,
      "য": 594,
      "র": 595,
      "ল": 596,
      "শ": 597,
      "ষ": 598,
      "স": 599,
      "হ": 600,
      "়": 601,
      "া": 602,
      "ি": 603,
      "ী": 604,
      "ু": 605,
      "ূ": 606,
      "ৃ": 607,
      "ে": 608,
      "ৈ": 609,
      "ো": 610,
      "্": 611,
      "১": 612,
      "২": 613,
      "ৰ": 614,
      "৳": 615,
      "৷": 616,
      "ਂ": 617,
      "ਅ": 618,
      "ਆ": 619,
      "ਇ": 620,
      "ਈ": 621,
      "ਉ": 622,
      "ਕ": 623,
      "ਖ": 624,
      "ਗ": 625,
      "ਘ": 626,
      "ਚ": 627,
      "ਛ": 628,
      "ਜ": 629,
      "ਝ": 630,
      "ਟ": 631,
      "ਠ": 632,
      "ਡ": 633,
      "ਣ": 634,
      "ਤ": 635,
      "ਦ": 636,
      "ਧ": 637,
      "ਨ": 638,
      "ਪ": 639,
      "ਫ": 640,
      "ਬ": 641,
      "ਭ": 642,
      "ਮ": 643,
      "ਯ": 644,
      "ਰ": 645,
      "ਲ": 646,
      "ਵ": 647,
      "ਸ": 648,
      "ਹ": 649,
      "਼": 650,
      "ਾ": 651,
      "ਿ": 652,
      "ੀ": 653,
      "ੁ": 654,
      "ੂ": 655,
      "ੇ": 656,
      "ੈ": 657,
      "ੋ": 658,
      "ੌ": 659,
      "੍": 660,
      "ੜ": 661,
      "੧": 662,
      "੨": 663,
      "੩": 664,
      "ੰ": 665,
      "ੱ": 666,
      "ત": 667,
      "ન": 668,
      "મ": 669,
      "ર": 670,
      "શ": 671,
      "સ": 672,
      "ા": 673,
      "ી": 674,
      "ુ": 675,
      "ે": 676,
      "૦": 677,
      "૧": 678,
      "૨": 679,
      "ଆ": 680,
      "ଓ": 681,
      "ଡ": 682,
      "ବ": 683,
      "ର": 684,
      "଼": 685,
      "ା": 686,
      "ି": 687,
      "ୁ": 688,
      "୍": 689,
      "அ": 690,
      "ஆ": 691,
      "க": 692,
      "ச": 693,
      "ஜ": 694,
      "ட": 695,
      "த": 696,
      "ந": 697,
      "ன": 698,
      "ப": 699,
      "ம": 700,
      "ய": 701,
      "ர": 702,
      "ற": 703,
      "ல": 704,
      "ள": 705,
      "ழ": 706,
      "வ": 707,
      "ா": 708,
      "ி": 709,
      "ு": 710,
      "ெ": 711,
      "ே": 712,
      "ை": 713,
      "்": 714,
      "ం": 715,
      "క": 716,
      "గ": 717,
      "చ": 718,
      "జ": 719,
      "ట": 720,
      "డ": 721,
      "ణ": 722,
      "త": 723,
      "ద": 724,
      "న": 725,
      "ప": 726,
      "బ": 727,
      "భ": 728,
      "మ": 729,
      "య": 730,
      "ర": 731,
      "ల": 732,
      "ళ": 733,
      "వ": 734,
      "శ": 735,
      "ష": 736,
      "స": 737,
      "ా": 738,
      "ి": 739,
      "ీ": 740,
      "ు": 741,
      "ూ": 742,
      "ృ": 743,
      "ె": 744,
      "ే": 745,
      "ై": 746,
      "ొ": 747,
      "ో": 748,
      "్": 749,
      "ಂ": 750,
      "ಕ": 751,
      "ಗ": 752,
      "ಜ": 753,
      "ಟ": 754,
      "ಡ": 755,
      "ಣ": 756,
      "ತ": 757,
      "ದ": 758,
      "ಧ": 759,
      "ನ": 760,
      "ಪ": 761,
      "ಬ": 762,
      "ಭ": 763,
      "ಮ": 764,
      "ಯ": 765,
      "ರ": 766,
      "ಲ": 767,
      "ಳ": 768,
      "ವ": 769,
      "ಶ": 770,
      "ಷ": 771,
      "ಸ": 772,
      "ಹ": 773,
      "ಾ": 774,
      "ಿ": 775,
      "ು": 776,
      "ೆ": 777,
      "ೇ": 778,
      "ೈ": 779,
      "ೊ": 780,
      "ೋ": 781,
      "್": 782,
      "ക": 783,
      "പ": 784,
      "മ": 785,
      "യ": 786,
      "ല": 787,
      "ാ": 788,
      "്": 789,
      "ง": 790,
      "ท": 791,
      "น": 792,
      "ร": 793,
      "ว": 794,
      "า": 795,
      "฿": 796,
      "เ": 797,
      "་": 798,
      "ག": 799,
      "ང": 800,
      "်": 801,
      "ន": 802,
      "៛": 803,
      "ḍ": 804,
      "ḏ": 805,
      "ḥ": 806,
      "ḷ": 807,
      "ṁ": 808,
      "ṅ": 809,
      "ṇ": 810,
      "ṛ": 811,
      "ṣ": 812,
      "ṭ": 813,
      "ṯ": 814,
      "ầ": 815,
      "ễ": 816,
      "ồ": 817,
      "ộ": 818,
      "ụ": 819,
      "ἀ": 820,
      "Ἀ": 821,
      "ἴ": 822,
      "ὀ": 823,
      "ὅ": 824,
      "ῖ": 825,
      "​": 826,
      "‌": 827,
      "‍": 828,
      "‎": 829,
      "‏": 830,
      "‐": 831,
      "–": 832,
      "—": 833,
      "―": 834,
      "‘": 835,
      "’": 836,
      "‚": 837,
      "“": 838,
      "”": 839,
      "†": 840,
      "‡": 841,
      "•": 842,
      "‪": 843,
      "‬": 844,
      "‰": 845,
      "′": 846,
      "‹": 847,
      "⁄": 848,
      "⁡": 849,
      "₠": 850,
      "₡": 851,
      "₢": 852,
      "₣": 853,
      "₦": 854,
      "₧": 855,
      "₩": 856,
      "₪": 857,
      "₫": 858,
      "€": 859,
      "₭": 860,
      "₮": 861,
      "₰": 862,
      "₸": 863,
      "₹": 864,
      "₺": 865,
      "₽": 866,
      "←": 867,
      "↑": 868,
      "→": 869,
      "↓": 870,
      "↔": 871,
      "∂": 872,
      "∅": 873,
      "∆": 874,
      "∇": 875,
      "∈": 876,
      "∉": 877,
      "∑": 878,
      "−": 879,
      "∗": 880,
      "∘": 881,
      "√": 882,
      "∞": 883,
      "∠": 884,
      "∨": 885,
      "∩": 886,
      "∪": 887,
      "∫": 888,
      "∴": 889,
      "≈": 890,
      "≠": 891,
      "≡": 892,
      "≤": 893,
      "≥": 894,
      "⊂": 895,
      "⊆": 896,
      "⊕": 897,
      "⊙": 898,
      "⊤": 899,
      "⋅": 900,
      "⋆": 901,
      "⋯": 902,
      "▁": 903,
      "█": 904,
      "■": 905,
      "▪": 906,
      "△": 907,
      "►": 908,
      "◆": 909,
      "●": 910,
      "◻": 911,
      "★": 912,
      "☆": 913,
      "☉": 914,
      "☑": 915,
      "♀": 916,
      "♂": 917,
      "♆": 918,
      "♦": 919,
      "♯": 920,
      "➡": 921,
      "⟨": 922,
      "⟩": 923,
      "⟶": 924,
      "⨀": 925,
      "【": 926,
      "】": 927,
      "が": 928,
      "な": 929,
      "の": 930,
      "ら": 931,
      "る": 932,
      "ケ": 933,
      "ト": 934,
      "ポ": 935,
      "モ": 936,
      "ン": 937,
      "ー": 938,
      "中": 939,
      "九": 940,
      "克": 941,
      "分": 942,
      "县": 943,
      "合": 944,
      "國": 945,
      "士": 946,
      "大": 947,
      "失": 948,
      "奇": 949,
      "奥": 950,
      "女": 951,
      "威": 952,
      "學": 953,
      "尔": 954,
      "库": 955,
      "手": 956,
      "日": 957,
      "明": 958,
      "月": 959,
      "木": 960,
      "本": 961,
      "林": 962,
      "沖": 963,
      "波": 964,
      "洛": 965,
      "浙": 966,
      "海": 967,
      "特": 968,
      "病": 969,
      "症": 970,
      "神": 971,
      "科": 972,
      "米": 973,
      "精": 974,
      "索": 975,
      "統": 976,
      "维": 977,
      "莫": 978,
      "萨": 979,
      "葛": 980,
      "裂": 981,
      "調": 982,
      "赫": 983,
      "鄂": 984,
      "重": 985,
      "阿": 986,
      "院": 987,
      "黑": 988,
      "齐": 989,
      "이": 990,
      "": 991,
      "": 992,
      "￱": 993,
      "￸": 994,
      "￼": 995,
      "�": 996,
      "🎪": 997,
      "🏰": 998,
      "👏": 999,
      "🚩": 1000,
      "▁क": 1001,
      "▁स": 1002,
      "▁ह": 1003,
      "▁म": 1004,
      "▁प": 1005,
      "्र": 1006,
      "▁के": 1007,
      "▁है": 1008,
      "ें": 1009,
      "ार": 1010,
      "▁ज": 1011,
      "या": 1012,
      "▁व": 1013,
      "▁अ": 1014,
      "▁में": 1015,
      "▁ब": 1016,
      "▁न": 1017,
      "र्": 1018,
      "ों": 1019,
      "▁द": 1020,
      "ान": 1021,
      "▁र": 1022,
      "ता": 1023,
      "्य": 1024,
      "िक": 1025,
      "▁ल": 1026,
      "▁की": 1027,
      "▁प्र": 1028,
      "▁उ": 1029,
      "▁का": 1030,
      "▁ग": 1031,
      "▁इ": 1032,
      "▁भ": 1033,
      "▁औ": 1034,
      "▁से": 1035,
      "▁है।": 1036,
      "्त": 1037,
      "▁और": 1038,
      "▁त": 1039,
      "▁ए": 1040,
      "ने": 1041,
      "ित": 1042,
      "▁को": 1043,
      "▁आ": 1044,
      "िया": 1045,
      "्व": 1046,
      "▁श": 1047,
      "ना": 1048,
      "▁य": 1049,
      "▁पर": 1050,
      "▁कर": 1051,
      "न्": 1052,
      "ला": 1053,
      "▁इस": 1054,
      "▁वि": 1055,
      "▁एक": 1056,
      "था": 1057,
      "▁हैं": 1058,
      "▁हो": 1059,
      "िय": 1060,
      "▁\n": 1061,
      "्ट": 1062,
      "▁च": 1063,
      "ाल": 1064,
      "▁सं": 1065,
      "्ष": 1066,
      "▁जा": 1067,
      "ती": 1068,
      "िस": 1069,
      "ाम": 1070,
      "ते": 1071,
      "िल": 1072,
      "हा": 1073,
      "ड़": 1074,
      "▁1": 1075,
      "▁सम": 1076,
      "ाज": 1077,
      "त्र": 1078,
      "ति": 1079,
      "▁ने": 1080,
      "ुर": 1081,
      "िए": 1082,
      "वा": 1083,
      "के": 1084,
      "ंग": 1085,
      "▁हैं।": 1086,
      "स्": 1087,
      "▁फ": 1088,
      "▁भी": 1089,
      "▁स्": 1090,
      "्या": 1091,
      "▁किया": 1092,
      "का": 1093,
      "▁सा": 1094,
      "ेश": 1095,
      "▁·": 1096,
      "▁कि": 1097,
      "ोग": 1098,
      "से": 1099,
      "▁थ": 1100,
      "क्ष": 1101,
      "▁यह": 1102,
      "री": 1103,
      "ाद": 1104,
      "ास": 1105,
      "▁अन": 1106,
      "्म": 1107,
      "नी": 1108,
      "▁था": 1109,
      "रा": 1110,
      "▁लिए": 1111,
      "▁ख": 1112,
      "ही": 1113,
      "▁नि": 1114,
      "कार": 1115,
      "▁अप": 1116,
      "▁हु": 1117,
      "▁2": 1118,
      "ले": 1119,
      "िन": 1120,
      "द्": 1121,
      "ूप": 1122,
      "्स": 1123,
      "कर": 1124,
      "▁गया": 1125,
      "ली": 1126,
      "ां": 1127,
      "▁जो": 1128,
      "▁राज": 1129,
      "ारा": 1130,
      "ाय": 1131,
      "▁भार": 1132,
      "▁है।\n": 1133,
      "की": 1134,
      "ंद": 1135,
      "▁अध": 1136,
      "▁कार": 1137,
      "ियों": 1138,
      "▁ड": 1139,
      "ूर्": 1140,
      "▁रूप": 1141,
      "▁है,": 1142,
      "▁ही": 1143,
      "▁जाता": 1144,
      "द्ध": 1145,
      "▁या": 1146,
      "▁द्व": 1147,
      "क्त": 1148,
      "▁ट": 1149,
      "्री": 1150,
      "▁दे": 1151,
      "।\n": 1152,
      "मा": 1153,
      "▁उस": 1154,
      "▁उप": 1155,
      "▁उन": 1156,
      "ष्ट": 1157,
      "ीन": 1158,
      "हीं": 1159,
      "▁मु": 1160,
      "00": 1161,
      "ंड": 1162,
      "▁कु": 1163,
      "▁वर्": 1164,
      "्प": 1165,
      "ओं": 1166,
      "िला": 1167,
      "▁ध": 1168,
      "न्ह": 1169,
      "▁जिस": 1170,
      "ाव": 1171,
      "▁19": 1172,
      "▁ले": 1173,
      "▁स्थ": 1174,
      "वि": 1175,
      "त्त": 1176,
      "▁तथा": 1177,
      "ाह": 1178,
      "▁करने": 1179,
      "ाने": 1180,
      "स्त": 1181,
      "▁नहीं": 1182,
      "ाग": 1183,
      "▁विश": 1184,
      "िर": 1185,
      "सी": 1186,
      "ंत": 1187,
      "▁पह": 1188,
      "ेल": 1189,
      "▁थे": 1190,
      "▁साथ": 1191,
      "▁द्वारा": 1192,
      "ाइ": 1193,
      "ार्": 1194,
      "न्द": 1195,
      "ात": 1196,
      "▁•": 1197,
      "▁सक": 1198,
      "▁घ": 1199,
      "में": 1200,
      "▁अनु": 1201,
      "▁था।": 1202,
      "▁तक": 1203,
      "▁अधिक": 1204,
      "्रे": 1205,
      "्च": 1206,
      "▁भारत": 1207,
      "▁रह": 1208,
      "ज़": 1209,
      "पुर": 1210,
      "▁स्व": 1211,
      "▁क्ष": 1212,
      "िव": 1213,
      "▁निर्": 1214,
      "▁छ": 1215,
      "देश": 1216,
      "▁बाद": 1217,
      "▁होता": 1218,
      "म्": 1219,
      "▁लग": 1220,
      "ल्": 1221,
      "▁उन्ह": 1222,
      "रे": 1223,
      "कि": 1224,
      "▁थी": 1225,
      "ाप": 1226,
      "ानी": 1227,
      "ृत": 1228,
      "ब्": 1229,
      "▁मह": 1230,
      "दी": 1231,
      "▁नाम": 1232,
      "सा": 1233,
      "▁इन": 1234,
      "योग": 1235,
      "▁दो": 1236,
      "मी": 1237,
      "▁वे": 1238,
      "्ञ": 1239,
      "▁अपने": 1240,
      "▁मान": 1241,
      "▁दिया": 1242,
      "ेत्र": 1243,
      "▁\"": 1244,
      "▁सि": 1245,
      "▁जी": 1246,
      "▁सु": 1247,
      "वं": 1248,
      "ुत": 1249,
      "ढ़": 1250,
      "▁वाल": 1251,
      "ंध": 1252,
      "भी": 1253,
      "िश": 1254,
      "मान": 1255,
      "▁हुआ": 1256,
      "ूर": 1257,
      "्ड": 1258,
      "ाई": 1259,
      "ारी": 1260,
      "न्न": 1261,
      "वी": 1262,
      "र्म": 1263,
      "ोज": 1264,
      "ंत्र": 1265,
      "▁क्षेत्र": 1266,
      "▁पूर्": 1267,
      "िका": 1268,
      "▁बह": 1269,
      "क्र": 1270,
      "ाष": 1271,
      "▁कुछ": 1272,
      "ेर": 1273,
      "ोल": 1274,
      "▁साम": 1275,
      "ोट": 1276,
      "▁जै": 1277,
      "▁व्य": 1278,
      "ष्": 1279,
      "▁ई": 1280,
      "▁पु": 1281,
      "▁राज्य": 1282,
      "जी": 1283,
      "▁पा": 1284,
      "▁वर्ष": 1285,
      "▁जिला": 1286,
      "खा": 1287,
      "▁सब": 1288,
      "दि": 1289,
      "ज्ञ": 1290,
      "धार": 1291,
      "▁एवं": 1292,
      "▁उत्त": 1293,
      "▁तो": 1294,
      "ौर": 1295,
      "▁वह": 1296,
      "नों": 1297,
      "▁प्रति": 1298,
      "▁इसके": 1299,
      "▁ऐ": 1300,
      "▁हि": 1301,
      "ूल": 1302,
      "्ल": 1303,
      "रण": 1304,
      "▁बी": 1305,
      "स्ट": 1306,
      "▁स्थित": 1307,
      "गर": 1308,
      "▁मा": 1309,
      "▁बना": 1310,
      "ोंने": 1311,
      "▁विक": 1312,
      "▁सी": 1313,
      "िये": 1314,
      "िट": 1315,
      "▁रा": 1316,
      "▁करते": 1317,
      "ोक": 1318,
      "▁हुए": 1319,
      "▁मिल": 1320,
      "▁जब": 1321,
      "चार": 1322,
      "▁समय": 1323,
      "▁हैं।\n": 1324,
      "कों": 1325,
      "प्र": 1326,
      "▁होती": 1327,
      "▁|": 1328,
      "त्": 1329,
      "▁हैं,": 1330,
      "ीय": 1331,
      "▁कम": 1332,
      "▁किस": 1333,
      "र्थ": 1334,
      "तीय": 1335,
      "▁'": 1336,
      "निक": 1337,
      "फ़": 1338,
      "ड़ी": 1339,
      "टर": 1340,
      "▁अन्य": 1341,
      "▁क्र": 1342,
      "जा": 1343,
      "ण्ड": 1344,
      "▁ओ": 1345,
      "▁कई": 1346,
      "▁कार्य": 1347,
      "▁कारण": 1348,
      "दा": 1349,
      "▁अव": 1350,
      "िम": 1351,
      "▁थे।": 1352,
      "ेट": 1353,
      "र्श": 1354,
      "▁200": 1355,
      "ोर": 1356,
      "ड़ा": 1357,
      "सार": 1358,
      "िंग": 1359,
      "▁कह": 1360,
      "▁लोग": 1361,
      "ाला": 1362,
      "ाषा": 1363,
      "हाँ": 1364,
      "▁ब्र": 1365,
      "स्थ": 1366,
      "▁प्रकार": 1367,
      "▁विश्व": 1368,
      "ंच": 1369,
      "भाव": 1370,
      "▁गु": 1371,
      "▁अंत": 1372,
      "हर": 1373,
      "वे": 1374,
      "बर": 1375,
      "▁बन": 1376,
      "▁सर": 1377,
      "ाँ": 1378,
      "ाना": 1379,
      "्यू": 1380,
      "▁होने": 1381,
      "▁सबसे": 1382,
      "▁जन": 1383,
      "▁उत": 1384,
      "िप": 1385,
      "बंध": 1386,
      "▁ऑ": 1387,
      "▁सकता": 1388,
      "▁उनके": 1389,
      "ूस": 1390,
      "मु": 1391,
      "्रीय": 1392,
      "यु": 1393,
      "क्ति": 1394,
      "▁यु": 1395,
      "िण": 1396,
      "▁मै": 1397,
      "▁मे": 1398,
      "ाप्त": 1399,
      "▁उन्होंने": 1400,
      "▁प्रा": 1401,
      "द्य": 1402,
      "र्ग": 1403,
      "▁देश": 1404,
      "▁भारतीय": 1405,
      "▁किसी": 1406,
      "▁ग्र": 1407,
      "ुल": 1408,
      "ोप": 1409,
      "▁तर": 1410,
      "▁पुर": 1411,
      "ेष": 1412,
      "क्स": 1413,
      "ंप": 1414,
      "ध्य": 1415,
      "▁वाले": 1416,
      "▁मुख": 1417,
      "▁जाती": 1418,
      "▁पूर्व": 1419,
      "▁फ़": 1420,
      "▁3": 1421,
      "▁करता": 1422,
      "श्च": 1423,
      "▁बहुत": 1424,
      "िख": 1425,
      "▁होते": 1426,
      "▁अम": 1427,
      "▁भाषा": 1428,
      "▁विभ": 1429,
      "▁में,": 1430,
      "▁अपनी": 1431,
      "▁-": 1432,
      "िल्म": 1433,
      "ंक": 1434,
      "माण": 1435,
      "▁संग": 1436,
      "▁हुई": 1437,
      "▁20": 1438,
      "च्च": 1439,
      "▁चु": 1440,
      "लय": 1441,
      "▁भाग": 1442,
      "▁बार": 1443,
      "▁स्ट": 1444,
      "▁राष्ट": 1445,
      "▁कहा": 1446,
      "ड़े": 1447,
      "पूर्": 1448,
      "▁पू": 1449,
      "▁पहले": 1450,
      "▁ऊ": 1451,
      "नि": 1452,
      "▁कै": 1453,
      "्यों": 1454,
      "करण": 1455,
      "र्व": 1456,
      "▁गए": 1457,
      "▁भू": 1458,
      "▁गई": 1459,
      "टी": 1460,
      "ज्ञान": 1461,
      "त्य": 1462,
      "बी": 1463,
      "वन": 1464,
      "▁अल": 1465,
      "त्व": 1466,
      "कृत": 1467,
      "▁दी": 1468,
      "को": 1469,
      "▁अभ": 1470,
      "ख्या": 1471,
      "स्था": 1472,
      "ये": 1473,
      "सि": 1474,
      "किन": 1475,
      "ंज": 1476,
      "▁जैसे": 1477,
      "ेन": 1478,
      "ाली": 1479,
      "हित": 1480,
      "धान": 1481,
      "▁गया।": 1482,
      "ास्त": 1483,
      "हां": 1484,
      "दान": 1485,
      "गा": 1486,
      "▁दु": 1487,
      "▁ये": 1488,
      "िले": 1489,
      "रिक": 1490,
      "▁व्या": 1491,
      "▁बि": 1492,
      "▁प्राप्त": 1493,
      "ोध": 1494,
      "▁थी।": 1495,
      "द्र": 1496,
      "▁आदि": 1497,
      "▁लेकिन": 1498,
      "ियम": 1499,
      "न्त": 1500,
      "चना": 1501,
      "तिक": 1502,
      "▁किया।": 1503,
      "▁सू": 1504,
      "▁उत्तर": 1505,
      "यी": 1506,
      "▁रहे": 1507,
      "▁उत्प": 1508,
      "▁उन्हें": 1509,
      "▁शुर": 1510,
      "मुख": 1511,
      "▁वै": 1512,
      "हार": 1513,
      "▁/": 1514,
      "▁स्था": 1515,
      "र्ष": 1516,
      "ित्र": 1517,
      "▁शाम": 1518,
      "▁ता": 1519,
      "an": 1520,
      "▁मुख्य": 1521,
      "▁रहा": 1522,
      "धि": 1523,
      "▁अनुसार": 1524,
      "▁उसके": 1525,
      "िन्न": 1526,
      "काश": 1527,
      "▁स्थान": 1528,
      "▁दूस": 1529,
      "▁निक": 1530,
      "▁5": 1531,
      "▁विशेष": 1532,
      "हास": 1533,
      "ून": 1534,
      "▁जाने": 1535,
      "▁इसका": 1536,
      "ेम": 1537,
      "▁बै": 1538,
      "▁7": 1539,
      "▁सभी": 1540,
      "▁प्रयोग": 1541,
      "▁पी": 1542,
      "▁शामिल": 1543,
      "बाद": 1544,
      "▁तरह": 1545,
      "ेड": 1546,
      "क्षा": 1547,
      "ब्द": 1548,
      "▁लिये": 1549,
      "पर": 1550,
      "▁दक्ष": 1551,
      "ीत": 1552,
      "▁उपयोग": 1553,
      "▁आधार": 1554,
      "in": 1555,
      "▁बीच": 1556,
      "न,": 1557,
      "ांत": 1558,
      "क्": 1559,
      "न्म": 1560,
      "▁गाँ": 1561,
      "▁इसे": 1562,
      "ील": 1563,
      "▁रख": 1564,
      "ंब": 1565,
      "ँच": 1566,
      "▁18": 1567,
      "▁उनकी": 1568,
      "▁लिया": 1569,
      "▁स्थाप": 1570,
      "त्म": 1571,
      "िता": 1572,
      "र्त": 1573,
      "्यालय": 1574,
      "▁सरकार": 1575,
      "▁t": 1576,
      "▁कोई": 1577,
      "▁दक्षिण": 1578,
      "क्ट": 1579,
      "▁201": 1580,
      "▁जिन": 1581,
      "▁जाते": 1582,
      "▁काम": 1583,
      "▁परिव": 1584,
      "▁अंग": 1585,
      "ंट": 1586,
      "▁पार": 1587,
      "▁पै": 1588,
      "भा": 1589,
      "▁प्रभाव": 1590,
      "▁8": 1591,
      "▁पद": 1592,
      "श्य": 1593,
      "वाद": 1594,
      "िक्ष": 1595,
      "काल": 1596,
      "च्": 1597,
      "▁4": 1598,
      "▁प्रमुख": 1599,
      "▁करना": 1600,
      "क्रम": 1601,
      "▁जन्म": 1602,
      "ोन": 1603,
      "▁ला": 1604,
      "▁संस्": 1605,
      "▁पश्च": 1606,
      "ग्र": 1607,
      "पूर्ण": 1608,
      "ियन": 1609,
      "च्छ": 1610,
      "्ला": 1611,
      "वल": 1612,
      "ाट": 1613,
      "युक्त": 1614,
      "▁चाह": 1615,
      "▁जिसमें": 1616,
      "▁आव": 1617,
      "म्ब": 1618,
      "▁अन्त": 1619,
      "▁हिन्द": 1620,
      "भग": 1621,
      "▁प्रदेश": 1622,
      "ंस": 1623,
      "▁शहर": 1624,
      "▁मन": 1625,
      "यन": 1626,
      "▁हम": 1627,
      "he": 1628,
      "▁लोगों": 1629,
      "▁बढ़": 1630,
      "ैंड": 1631,
      "ोर्": 1632,
      "▁गाँव": 1633,
      "▁शब्द": 1634,
      "▁बे": 1635,
      "यर": 1636,
      "▁ओर": 1637,
      "जन": 1638,
      "▁यहाँ": 1639,
      "▁धर्म": 1640,
      "धिक": 1641,
      "▁फिल्म": 1642,
      "्वी": 1643,
      "▁स्त": 1644,
      "▁लगभग": 1645,
      "▁आर": 1646,
      "▁बा": 1647,
      "▁निर्माण": 1648,
      "दर्श": 1649,
      "ोम": 1650,
      "वत": 1651,
      "▁उसे": 1652,
      "▁प्रकाश": 1653,
      "ार्थ": 1654,
      "▁झ": 1655,
      "▁जिले": 1656,
      "्तान": 1657,
      "ष्ठ": 1658,
      "▁दिन": 1659,
      "णा": 1660,
      "र्क": 1661,
      "▁अमेर": 1662,
      "▁दोनों": 1663,
      "गी": 1664,
      "तिहास": 1665,
      "लों": 1666,
      "▁सकते": 1667,
      "▁तीन": 1668,
      "ियाँ": 1669,
      "क्षण": 1670,
      "▁देख": 1671,
      "▁स्प": 1672,
      "▁मूल": 1673,
      "▁आप": 1674,
      "▁नगर": 1675,
      "▁मौ": 1676,
      "▁सद": 1677,
      "कृ": 1678,
      "रों": 1679,
      "एँ": 1680,
      "▁नी": 1681,
      "▁विकास": 1682,
      "▁चल": 1683,
      "▁संबंध": 1684,
      "▁जु": 1685,
      "थम": 1686,
      "ंभ": 1687,
      "on": 1688,
      "▁था,": 1689,
      "्वर": 1690,
      "▁बु": 1691,
      "ंह": 1692,
      "▁अस": 1693,
      "ोह": 1694,
      "चीन": 1695,
      "▁मंद": 1696,
      "▁इसी": 1697,
      "गे": 1698,
      "▁पहु": 1699,
      "▁महा": 1700,
      "▁ज़": 1701,
      "▁उद": 1702,
      "er": 1703,
      "▁प्रश": 1704,
      "ेद": 1705,
      "▁मार्": 1706,
      "ुद": 1707,
      "▁अध्य": 1708,
      "ारों": 1709,
      "▁दौर": 1710,
      "त्रा": 1711,
      "▁हर": 1712,
      "व्य": 1713,
      "प्त": 1714,
      "िकी": 1715,
      "▁फिर": 1716,
      "ॉल": 1717,
      "▁लोक": 1718,
      "▁इसकी": 1719,
      "▁महत्व": 1720,
      "▁टी": 1721,
      "फल": 1722,
      "ूह": 1723,
      ".\n": 1724,
      "▁व्यव": 1725,
      "▁वाली": 1726,
      "▁भूम": 1727,
      "▁मध्य": 1728,
      "▁जीवन": 1729,
      "शन": 1730,
      "▁सह": 1731,
      "▁सै": 1732,
      "सिद्ध": 1733,
      "▁केवल": 1734,
      "ोष": 1735,
      "धी": 1736,
      "ंकि": 1737,
      "▁जल": 1738,
      "▁प्राचीन": 1739,
      "डी": 1740,
      "ंद्र": 1741,
      "▁6": 1742,
      "▁मंदिर": 1743,
      "▁काल": 1744,
      "ताओं": 1745,
      "▁आम": 1746,
      "▁शास": 1747,
      "▁कहते": 1748,
      "▁छोट": 1749,
      "ारे": 1750,
      "तर": 1751,
      "▁दृ": 1752,
      "▁साहित": 1753,
      "िज": 1754,
      "▁श्री": 1755,
      "एं": 1756,
      "▁करती": 1757,
      "स्प": 1758,
      "▁अर्थ": 1759,
      "णी": 1760,
      "न्द्र": 1761,
      "ar": 1762,
      "र्गत": 1763,
      "▁अब": 1764,
      "▁माना": 1765,
      "र्य": 1766,
      "▁सिद्ध": 1767,
      "▁परि": 1768,
      "ाया": 1769,
      "्टी": 1770,
      "▁कृ": 1771,
      "द्यालय": 1772,
      "▁शुरू": 1773,
      "ेक": 1774,
      "ुम": 1775,
      "▁राष्ट्र": 1776,
      "वर": 1777,
      "▁निय": 1778,
      "निया": 1779,
      "धा": 1780,
      "▁सम्म": 1781,
      "तः": 1782,
      "सं": 1783,
      "▁अने": 1784,
      "▁क्यों": 1785,
      "▁साहित्य": 1786,
      "▁शिक्ष": 1787,
      "▁अपना": 1788,
      "▁अलग": 1789,
      "▁दौरान": 1790,
      "ुक": 1791,
      "ेत": 1792,
      "▁ईसा": 1793,
      "ेशन": 1794,
      "ष्ण": 1795,
      "▁जि": 1796,
      "ोस": 1797,
      "at": 1798,
      "िल्": 1799,
      "▁व्यक्ति": 1800,
      "फी": 1801,
      "▁सर्व": 1802,
      "▁युद्ध": 1803,
      "▁हाला": 1804,
      "▁इसमें": 1805,
      "▁विभिन्न": 1806,
      "▁199": 1807,
      "▁अंतर": 1808,
      "▁प्रसिद्ध": 1809,
      "▁जिसे": 1810,
      "▁आज": 1811,
      "दे": 1812,
      "िस्तान": 1813,
      "ंश": 1814,
      "ान्त": 1815,
      "▁व्याप": 1816,
      "्ब": 1817,
      "▁स्क": 1818,
      "▁बद": 1819,
      "▁उनका": 1820,
      "▁पृ": 1821,
      "्रा": 1822,
      "▁राजा": 1823,
      "▁पास": 1824,
      "▁उच्च": 1825,
      "▁गो": 1826,
      "▁अनेक": 1827,
      "▁तह": 1828,
      "▁कंप": 1829,
      "▁दर्श": 1830,
      "्ले": 1831,
      "ोड़": 1832,
      "▁अंग्रे": 1833,
      "र्स": 1834,
      "▁राष्ट्रीय": 1835,
      "▁जान": 1836,
      "▁साल": 1837,
      "is": 1838,
      "र्ड": 1839,
      "श्यक": 1840,
      "or": 1841,
      "द्योग": 1842,
      "▁बात": 1843,
      "वाह": 1844,
      "▁कला": 1845,
      "वान": 1846,
      "ुओं": 1847,
      "▁कॉ": 1848,
      "▁राम": 1849,
      "▁अला": 1850,
      "▁यहां": 1851,
      "▁तब": 1852,
      "▁क्योंकि": 1853,
      "▁रे": 1854,
      "ुष": 1855,
      "यास": 1856,
      "▁ठ": 1857,
      "▁रही": 1858,
      "▁था।\n": 1859,
      "▁विष": 1860,
      "न्ध": 1861,
      "▁ली": 1862,
      "ोड": 1863,
      "▁वी": 1864,
      "▁अर्": 1865,
      "▁श्र": 1866,
      "चे": 1867,
      "▁गण": 1868,
      "जे": 1869,
      "al": 1870,
      "▁संघ": 1871,
      "▁संवत": 1872,
      "▁ती": 1873,
      "पी": 1874,
      "▁मी": 1875,
      "▁विर": 1876,
      "▁लेख": 1877,
      "▁आवश्यक": 1878,
      "▁जाना": 1879,
      "▁ब्रिट": 1880,
      "▁गयी": 1881,
      "en": 1882,
      "▁हिस": 1883,
      "ैल": 1884,
      "▁हा": 1885,
      "▁संख्या": 1886,
      "्सा": 1887,
      "टा": 1888,
      "▁कल": 1889,
      "▁प्रत्य": 1890,
      "▁वृ": 1891,
      "▁लिख": 1892,
      "चित": 1893,
      "▁समझ": 1894,
      "गत": 1895,
      "कल": 1896,
      "सर": 1897,
      "▁उत्पाद": 1898,
      "▁सदस": 1899,
      "वीं": 1900,
      "तंत्र": 1901,
      "▁ज्ञ": 1902,
      "▁9": 1903,
      "म्म": 1904,
      "▁योग": 1905,
      "त्या": 1906,
      "्यु": 1907,
      "ोजन": 1908,
      "▁विचार": 1909,
      "ष्ट्रीय": 1910,
      "000": 1911,
      "▁सन्": 1912,
      "कृति": 1913,
      "ान्य": 1914,
      "ंतु": 1915,
      "▁निर्देश": 1916,
      "विद्यालय": 1917,
      "▁सेवा": 1918,
      "▁पड़": 1919,
      "▁नदी": 1920,
      "▁जिसके": 1921,
      "▁अति": 1922,
      "ोत": 1923,
      "▁अलावा": 1924,
      "▁रेल": 1925,
      "es": 1926,
      "▁विज्ञान": 1927,
      "▁आध": 1928,
      "ियो": 1929,
      "▁हालांकि": 1930,
      "▁इतिहास": 1931,
      "ैन": 1932,
      "▁10": 1933,
      "वाल": 1934,
      "▁बाह": 1935,
      "▁अग": 1936,
      "स्थान": 1937,
      "िल्ली": 1938,
      "ूत": 1939,
      "▁वा": 1940,
      "▁हुआ।": 1941,
      "▁बड़े": 1942,
      "ूद": 1943,
      "-प": 1944,
      "▁फ्र": 1945,
      "▁वर्ण": 1946,
      "वास": 1947,
      "▁महत्वपूर्ण": 1948,
      "टना": 1949,
      "ेंट": 1950,
      "▁किए": 1951,
      "▁कभी": 1952,
      "▁25": 1953,
      "मार": 1954,
      "▁दिया।": 1955,
      "▁चार": 1956,
      "▁अर": 1957,
      "▁ढ": 1958,
      "▁आय": 1959,
      "▁चौ": 1960,
      "ियां": 1961,
      "म्प": 1962,
      "▁the": 1963,
      "▁नामक": 1964,
      "▁रंग": 1965,
      "▁प्रदर्श": 1966,
      "नाव": 1967,
      "ाइन": 1968,
      "▁:": 1969,
      "ुआ": 1970,
      "मित": 1971,
      "▁प्रथम": 1972,
      "मे": 1973,
      "ुट": 1974,
      "बा": 1975,
      "▁रोग": 1976,
      "ांस": 1977,
      "▁सो": 1978,
      "▁इन्ह": 1979,
      "द्व": 1980,
      "िस्ट": 1981,
      "्रेस": 1982,
      "ांश": 1983,
      "▁सेना": 1984,
      "▁लगा": 1985,
      "▁की।": 1986,
      "▁चाहिए": 1987,
      "▁रचना": 1988,
      "▁प्रदान": 1989,
      "टन": 1990,
      "ष्टि": 1991,
      "▁शिक्षा": 1992,
      "ियर": 1993,
      "▁15": 1994,
      "▁समूह": 1995,
      "ची": 1996,
      "▁यूर": 1997,
      "▁हिंद": 1998,
      "ंख": 1999,
      "▁उसकी": 2000,
      "्‍": 2001,
      "▁दर": 2002,
      "▁पृथ": 2003,
      "ूट": 2004,
      "स्ता": 2005,
      "एस": 2006,
      "▁प्रण": 2007,
      "्यान": 2008,
      "हाय": 2009,
      "▁आई": 2010,
      "▁लि": 2011,
      "▁अध्ययन": 2012,
      "लेख": 2013,
      "ंथ": 2014,
      "ोजना": 2015,
      "▁सकती": 2016,
      "▁हिन्दी": 2017,
      "▁दूसरे": 2018,
      "▁प्रव": 2019,
      "▁जिसका": 2020,
      "▁सर्": 2021,
      "▁सिंह": 2022,
      "▁उपल": 2023,
      "▁दूर": 2024,
      "ाज्य": 2025,
      "▁वस्त": 2026,
      "ित्व": 2027,
      "▁प्रार": 2028,
      "▁अमेरिका": 2029,
      "▁जीव": 2030,
      "▁गये": 2031,
      "▁अथ": 2032,
      "▁समाज": 2033,
      "▁फ़िल्म": 2034,
      "▁अन्तर्गत": 2035,
      "▁वाला": 2036,
      "▁गै": 2037,
      "ेज": 2038,
      "▁संयुक्त": 2039,
      "▁पुन": 2040,
      "▁धार": 2041,
      "▁स्थापित": 2042,
      "▁कुल": 2043,
      "▁दिल्ली": 2044,
      "ुप": 2045,
      "▁ऐसे": 2046,
      "त्ति": 2047,
      "कारी": 2048,
      "▁आस": 2049,
      "▁समान": 2050,
      "चा": 2051,
      "▁उपलब्": 2052,
      "▁विश्वविद्यालय": 2053,
      "ीप": 2054,
      "▁o": 2055,
      "▁सहाय": 2056,
      "▁ना": 2057,
      "▁खेल": 2058,
      "▁न्यू": 2059,
      "▁गति": 2060,
      "तम": 2061,
      "▁सामान्य": 2062,
      "▁ऐसा": 2063,
      "ूम": 2064,
      "▁जाए": 2065,
      "▁जबकि": 2066,
      "▁जग": 2067,
      "ांक": 2068,
      "▁खिला": 2069,
      "▁अधिकार": 2070,
      "▁बड़ा": 2071,
      "▁कोश": 2072,
      "▁पाक": 2073,
      "ास्त्र": 2074,
      "▁स्थापना": 2075,
      "▁वर्त": 2076,
      "▁दश": 2077,
      "▁तौर": 2078,
      "▁चित्र": 2079,
      "▁देने": 2080,
      "▁देव": 2081,
      "▁भर": 2082,
      "यों": 2083,
      "चाल": 2084,
      "▁शा": 2085,
      "▁वर्ग": 2086,
      "▁बड़ी": 2087,
      "वर्": 2088,
      "भव": 2089,
      "शी": 2090,
      "▁पत्र": 2091,
      "ोब": 2092,
      "▁सुर": 2093,
      "▁थे,": 2094,
      "▁यूरोप": 2095,
      "▁198": 2096,
      "it": 2097,
      "▁देशों": 2098,
      "▁घर": 2099,
      "▁तै": 2100,
      "्न": 2101,
      "▁यू": 2102,
      "▁17": 2103,
      "▁उल्": 2104,
      "▁भग": 2105,
      "▁राजनी": 2106,
      "मन": 2107,
      "▁यदि": 2108,
      "▁गुर": 2109,
      "गढ़": 2110,
      "चल": 2111,
      "▁पहली": 2112,
      "▁वास्त": 2113,
      "▁बनाया": 2114,
      "▁अथवा": 2115,
      "▁12": 2116,
      "▁गां": 2117,
      "ाइड": 2118,
      "▁माध्य": 2119,
      "ंगा": 2120,
      "▁s": 2121,
      "▁वर्तमान": 2122,
      "▁ख़": 2123,
      "▁197": 2124,
      "डा": 2125,
      "▁उसने": 2126,
      "ed": 2127,
      "▁इसल": 2128,
      "साय": 2129,
      "▁मत": 2130,
      "▁शु": 2131,
      "र्ट": 2132,
      "▁कान": 2133,
      "ॉन": 2134,
      "र्द": 2135,
      "क,": 2136,
      "क्रिया": 2137,
      "▁उपलब्ध": 2138,
      "▁श्रे": 2139,
      "▁फै": 2140,
      "िग": 2141,
      "दार": 2142,
      "▁किये": 2143,
      "▁करके": 2144,
      "▁शरी": 2145,
      "▁रखा": 2146,
      "ण्डल": 2147,
      "▁विस्त": 2148,
      "▁टे": 2149,
      "▁माध्यम": 2150,
      "शिया": 2151,
      "पाल": 2152,
      "▁नव": 2153,
      "यं": 2154,
      "वादी": 2155,
      "ठन": 2156,
      "म्भ": 2157,
      "वरी": 2158,
      "न्तु": 2159,
      "▁S": 2160,
      "ंदर": 2161,
      "▁काफी": 2162,
      "▁जिन्ह": 2163,
      "▁उद्": 2164,
      "▁पूर्ण": 2165,
      "▁A": 2166,
      "▁बता": 2167,
      "▁शै": 2168,
      "्यता": 2169,
      "▁इस्त": 2170,
      "ल्ड": 2171,
      "▁लेकर": 2172,
      "▁पि": 2173,
      "▁ट्र": 2174,
      "ामी": 2175,
      "▁c": 2176,
      "र्या": 2177,
      "▁मानव": 2178,
      "▁संप": 2179,
      "ानों": 2180,
      "वार": 2181,
      "▁स्वतंत्र": 2182,
      "लैंड": 2183,
      "▁उसका": 2184,
      "▁वर्षों": 2185,
      "▁वाय": 2186,
      "▁बल": 2187,
      "▁न्या": 2188,
      "▁196": 2189,
      "▁C": 2190,
      "▁इं": 2191,
      "ुनिक": 2192,
      "▁बनाने": 2193,
      "▁प्रत्येक": 2194,
      "▁ज्या": 2195,
      "▁जिससे": 2196,
      "र्भ": 2197,
      "▁अधिकांश": 2198,
      "▁दिख": 2199,
      "ट्ट": 2200,
      "म्बर": 2201,
      "▁शिव": 2202,
      "रो": 2203,
      "कृतिक": 2204,
      "त्ता": 2205,
      "ाहरण": 2206,
      "▁संगीत": 2207,
      "▁स्थिति": 2208,
      "स्कार": 2209,
      "▁त्र": 2210,
      "▁मृत": 2211,
      "▁गया।\n": 2212,
      "न्स": 2213,
      "▁बारे": 2214,
      "▁कवि": 2215,
      "-स": 2216,
      "्रम": 2217,
      "▁‘": 2218,
      "▁इनके": 2219,
      "▁पुस्त": 2220,
      "▁स्तर": 2221,
      "▁पहुंच": 2222,
      "विक": 2223,
      "कट": 2224,
      "ज्ञानिक": 2225,
      "िकित": 2226,
      "le": 2227,
      "ic": 2228,
      "गल": 2229,
      "▁परिवर्त": 2230,
      "▁क्षेत्रों": 2231,
      "▁उत्तरा": 2232,
      "▁नाग": 2233,
      "▁निम्": 2234,
      "▁पं": 2235,
      "▁उदाहरण": 2236,
      "द्धि": 2237,
      "▁परिण": 2238,
      "िष्ट": 2239,
      "▁चि": 2240,
      "▁16": 2241,
      "त्मक": 2242,
      "वरण": 2243,
      "ूरी": 2244,
      "सित": 2245,
      "ंत्री": 2246,
      "जर": 2247,
      "▁शरीर": 2248,
      "▁देता": 2249,
      "सील": 2250,
      "▁डी": 2251,
      "▁सफल": 2252,
      "▁पानी": 2253,
      "▁इला": 2254,
      "▁रहता": 2255,
      "▁कप": 2256,
      "▁दुनिया": 2257,
      "▁शासन": 2258,
      "▁आधुनिक": 2259,
      "▁पौ": 2260,
      "▁संर": 2261,
      "▁जहाँ": 2262,
      "▁अच्छ": 2263,
      "▁पृथ्वी": 2264,
      "▁a": 2265,
      "▁मिला": 2266,
      "▁I": 2267,
      "सल": 2268,
      "▁ब्रिटिश": 2269,
      "श्व": 2270,
      "▁of": 2271,
      "▁तहसील": 2272,
      "▁195": 2273,
      "▁बच्च": 2274,
      "▁तुल": 2275,
      "▁माम": 2276,
      "▁विद्य": 2277,
      "▁घोष": 2278,
      "िस्": 2279,
      "▁बाल": 2280,
      "▁शता": 2281,
      "बल": 2282,
      "▁हाथ": 2283,
      "▁निम्न": 2284,
      "ेमाल": 2285,
      "▁ची": 2286,
      "▁इससे": 2287,
      "▁इस्तेमाल": 2288,
      "स्थित": 2289,
      "इट": 2290,
      "▁ई.": 2291,
      "▁परिवार": 2292,
      "▁किल": 2293,
      "▁पुत्र": 2294,
      "..": 2295,
      "▁पर्व": 2296,
      "▁जहां": 2297,
      "▁सीमा": 2298,
      "लो": 2299,
      "▁प्रधान": 2300,
      "▁होकर": 2301,
      "▁पुरस्कार": 2302,
      "▁उत्पन्न": 2303,
      "▁गुण": 2304,
      "ाजिक": 2305,
      "▁भाव": 2306,
      "▁पाकिस्तान": 2307,
      "र्जा": 2308,
      "▁भूमिका": 2309,
      "▁डे": 2310,
      "▁आगे": 2311,
      "▁डॉ": 2312,
      "▁इसलिए": 2313,
      "त:": 2314,
      "यार": 2315,
      "▁सार": 2316,
      "िमी": 2317,
      "▁महिला": 2318,
      "ी,": 2319,
      "▁मण्डल": 2320,
      "▁बो": 2321,
      "्ता": 2322,
      "ब्दी": 2323,
      "▁संत": 2324,
      "▁194": 2325,
      "चन": 2326,
      "▁सौ": 2327,
      "▁सदस्य": 2328,
      "नीय": 2329,
      "-अ": 2330,
      "धानी": 2331,
      "▁अफ": 2332,
      "▁सभा": 2333,
      "▁पिता": 2334,
      "▁बने": 2335,
      "▁मार्ग": 2336,
      "वाई": 2337,
      "▁क्ल": 2338,
      "▁प्रक्रिया": 2339,
      "▁परिणाम": 2340,
      "▁27": 2341,
      "रिक्त": 2342,
      "▁प्राय": 2343,
      "ार्ड": 2344,
      "▁प्रणाली": 2345,
      "जूद": 2346,
      "▁ज्ञान": 2347,
      "▁केंद्र": 2348,
      "र्ण": 2349,
      "▁होगा": 2350,
      "षण": 2351,
      "▁स्वी": 2352,
      "पति": 2353,
      "▁सामाजिक": 2354,
      "▁अत्य": 2355,
      "▁छोटे": 2356,
      "▁ऑफ": 2357,
      "-क": 2358,
      "▁अतिरिक्त": 2359,
      "▁चुनाव": 2360,
      "▁सम्मान": 2361,
      "ं।": 2362,
      "स्ट्र": 2363,
      "ंगल": 2364,
      "▁नियम": 2365,
      ",000": 2366,
      "खण्ड": 2367,
      "ों,": 2368,
      "▁M": 2369,
      "▁।": 2370,
      "▁रहते": 2371,
      "▁भगवान": 2372,
      "ाज़": 2373,
      "▁देते": 2374,
      "▁संग्र": 2375,
      "रूप": 2376,
      "▁उल्लेख": 2377,
      "र,": 2378,
      "ाण": 2379,
      "▁ऋ": 2380,
      "▁पदार्थ": 2381,
      "▁विकसित": 2382,
      "▁पहुँच": 2383,
      "▁द्वीप": 2384,
      "▁नौ": 2385,
      "▁पश्चिम": 2386,
      "▁चला": 2387,
      "▁परी": 2388,
      "▁सिद्धांत": 2389,
      "▁शक्ति": 2390,
      "मीटर": 2391,
      "ितीय": 2392,
      "▁व्यापार": 2393,
      "िने": 2394,
      "▁विमान": 2395,
      "▁स्वयं": 2396,
      "▁भौ": 2397,
      "▁तु": 2398,
      "▁मिश": 2399,
      "शा": 2400,
      "re": 2401,
      "ोर्ट": 2402,
      "ाइट": 2403,
      "नाथ": 2404,
      "▁पे": 2405,
      "▁इंड": 2406,
      "▁शी": 2407,
      "▁जिनमें": 2408,
      "▁नियंत्र": 2409,
      "▁जारी": 2410,
      "▁ऊपर": 2411,
      "ालय": 2412,
      "▁शताब्दी": 2413,
      "▁कंपनी": 2414,
      "▁पक्ष": 2415,
      "▁चिकित": 2416,
      "▁पता": 2417,
      "धारण": 2418,
      "पन": 2419,
      "ल,": 2420,
      "▁11": 2421,
      "▁पां": 2422,
      ":\n": 2423,
      "कर्ष": 2424,
      "▁राजधानी": 2425,
      "▁विषय": 2426,
      "▁साम्र": 2427,
      "▁बनी": 2428,
      "▁छोड़": 2429,
      "▁मात्रा": 2430,
      "स्या": 2431,
      "▁बाहर": 2432,
      "सन": 2433,
      "▁मार": 2434,
      "विध": 2435,
      "्मी": 2436,
      "▁मृत्यु": 2437,
      "ोने": 2438,
      "▁पत्": 2439,
      "्राष्ट्रीय": 2440,
      "and": 2441,
      "▁प्रकाशित": 2442,
      "र्ज": 2443,
      "▁ध्यान": 2444,
      "▁क्रिया": 2445,
      "क़": 2446,
      "▁अं": 2447,
      "▁भिन्न": 2448,
      "क्षित": 2449,
      "धन": 2450,
      "▁आधारित": 2451,
      "▁थी,": 2452,
      "▁समुद": 2453,
      "बे": 2454,
      "▁वन": 2455,
      "ांति": 2456,
      "▁विधान": 2457,
      "▁युग": 2458,
      "गु": 2459,
      "▁w": 2460,
      "▁एल": 2461,
      "मता": 2462,
      "▁b": 2463,
      "भार": 2464,
      "▁0": 2465,
      "▁चे": 2466,
      "▁टीम": 2467,
      "▁उत्तरी": 2468,
      "▁चीन": 2469,
      ".1": 2470,
      "▁पूरी": 2471,
      "▁व्यक्त": 2472,
      "▁बदल": 2473,
      "▁समर्थ": 2474,
      "▁बच": 2475,
      "▁बौ": 2476,
      "▁मद": 2477,
      "▁किलो": 2478,
      "राज": 2479,
      "र्न": 2480,
      "▁जगह": 2481,
      "▁देखा": 2482,
      "कालीन": 2483,
      "▁सम्प": 2484,
      "▁आया": 2485,
      "कर्": 2486,
      "▁साम्राज्य": 2487,
      "▁पर्या": 2488,
      "▁पहला": 2489,
      "▁मि": 2490,
      "▁संस्कृत": 2491,
      "▁आग": 2492,
      "▁व्यवस्था": 2493,
      "प्रिय": 2494,
      "▁द्र": 2495,
      "▁थे।\n": 2496,
      "▁प्रत": 2497,
      "तु": 2498,
      "▁पाल": 2499,
      "ion": 2500,
      "▁कार्यक्रम": 2501,
      "क्रमण": 2502,
      "▁P": 2503,
      "▁लड़": 2504,
      "ात्म": 2505,
      "▁माल": 2506,
      "▁घटना": 2507,
      "▁ग्रंथ": 2508,
      "▁गिर": 2509,
      "जों": 2510,
      "▁14": 2511,
      "st": 2512,
      "▁ऐसी": 2513,
      "▁प्रयास": 2514,
      "▁तैयार": 2515,
      "▁जर्म": 2516,
      "पि": 2517,
      "ब्र": 2518,
      "▁विभाग": 2519,
      "▁यात्रा": 2520,
      "▁आने": 2521,
      "▁खु": 2522,
      "ायक": 2523,
      "ल्स": 2524,
      "▁आर्थ": 2525,
      "ंखला": 2526,
      "ुद्र": 2527,
      "▁p": 2528,
      "▁प्रारंभ": 2529,
      "▁वहाँ": 2530,
      "▁T": 2531,
      "ह्म": 2532,
      "रिया": 2533,
      "▁नए": 2534,
      "▁महान": 2535,
      "▁यही": 2536,
      "▁तुलना": 2537,
      "ता,": 2538,
      "▁स्टेशन": 2539,
      "▁नीचे": 2540,
      "▁वित": 2541,
      "▁एम": 2542,
      "▁इंज": 2543,
      "हम": 2544,
      "▁उठ": 2545,
      "▁जनसं": 2546,
      "▁दृष्टि": 2547,
      "▁इनमें": 2548,
      "शील": 2549,
      "▁एशिया": 2550,
      "▁एस": 2551,
      "▁होना": 2552,
      "▁इंग": 2553,
      "तों": 2554,
      "▁पश्चिमी": 2555,
      "▁क़": 2556,
      "▁विध": 2557,
      "▁B": 2558,
      "▁संस्था": 2559,
      "▁योजना": 2560,
      ".5": 2561,
      "▁दूसरी": 2562,
      "▁खोज": 2563,
      "▁रेलवे": 2564,
      "▁लगे": 2565,
      "▁अनुस": 2566,
      "टक": 2567,
      "▁क्रम": 2568,
      "▁अक्स": 2569,
      "▁अप्र": 2570,
      "▁वैज्ञानिक": 2571,
      "आई": 2572,
      "▁गए।": 2573,
      "▁13": 2574,
      "▁वंश": 2575,
      "द्द": 2576,
      "रल": 2577,
      "▁ताप": 2578,
      "▁मज": 2579,
      "शास्त्र": 2580,
      "लाई": 2581,
      "हरा": 2582,
      "▁वो": 2583,
      "▁पेश": 2584,
      "ख़": 2585,
      "▁भूमि": 2586,
      "▁फल": 2587,
      "-\n": 2588,
      "सम": 2589,
      "िशा": 2590,
      "▁f": 2591,
      "नेट": 2592,
      "षि": 2593,
      "▁निकल": 2594,
      "िरा": 2595,
      "▁स्वा": 2596,
      "ात्मक": 2597,
      "▁गया,": 2598,
      "▁मॉ": 2599,
      "ार्क": 2600,
      "▁शुरुआ": 2601,
      "▁पहा": 2602,
      "▁सत": 2603,
      "▁उसी": 2604,
      "ंबर": 2605,
      "▁पूर्वी": 2606,
      "▁इंटर": 2607,
      "▁लोकप्रिय": 2608,
      "▁बिहार": 2609,
      "▁पाया": 2610,
      "्यो": 2611,
      "▁रहने": 2612,
      "▁रो": 2613,
      "ro": 2614,
      "▁लिया।": 2615,
      "▁लिखा": 2616,
      "▁m": 2617,
      "▁in": 2618,
      "▁जनसंख्या": 2619,
      "ेप": 2620,
      "▁उत्पादन": 2621,
      "मेंट": 2622,
      "▁संचाल": 2623,
      "▁बंग": 2624,
      "▁किलोमीटर": 2625,
      "▁एन": 2626,
      "तक": 2627,
      "▁दशक": 2628,
      "▁नै": 2629,
      "▁किया,": 2630,
      "▁अक्सर": 2631,
      "तन": 2632,
      "▁सम्ब": 2633,
      "ाइल": 2634,
      "▁.": 2635,
      "ॉट": 2636,
      "क्षेत्र": 2637,
      "▁193": 2638,
      "भर": 2639,
      "ड़ों": 2640,
      "▁जय": 2641,
      "गण": 2642,
      "-1": 2643,
      "-ब": 2644,
      "▁ग्रह": 2645,
      "▁अंग्रेजी": 2646,
      "▁सहायता": 2647,
      "▁विरोध": 2648,
      "▁बल्": 2649,
      "▁क्रिक": 2650,
      "▁बिना": 2651,
      "ृंखला": 2652,
      "▁सन": 2653,
      "▁आर्थिक": 2654,
      "र्च": 2655,
      "ंडल": 2656,
      "▁जर": 2657,
      "▁पार्टी": 2658,
      "▁अभी": 2659,
      "▁विशिष्ट": 2660,
      "▁सदी": 2661,
      "धिकार": 2662,
      "ानीय": 2663,
      "▁संस्थान": 2664,
      "▁हिस्सा": 2665,
      "ा,": 2666,
      "▁लाग": 2667,
      "▁ब्रह्म": 2668,
      "▁स्पष्ट": 2669,
      "▁गई।": 2670,
      "▁समा": 2671,
      "▁प्रवेश": 2672,
      "▁कर्म": 2673,
      "▁दल": 2674,
      "कीय": 2675,
      "ेतु": 2676,
      "▁लाख": 2677,
      "▁रॉ": 2678,
      "▁नाट": 2679,
      "▁लाल": 2680,
      "नु": 2681,
      "▁प्रस्त": 2682,
      "▁अमेरिकी": 2683,
      "िनी": 2684,
      "▁पूरा": 2685,
      "▁कांग": 2686,
      "्मिक": 2687,
      "▁उद्देश": 2688,
      "▁इत": 2689,
      "▁तीस": 2690,
      "▁बौद्ध": 2691,
      "▁मिलता": 2692,
      "ज़ी": 2693,
      "▁उत्तराखण्ड": 2694,
      "तिम": 2695,
      "ोलन": 2696,
      "▁रहती": 2697,
      "जय": 2698,
      "▁उद्योग": 2699,
      "▁सके": 2700,
      "ाक": 2701,
      "▁आकार": 2702,
      "▁किंतु": 2703,
      "ग्रह": 2704,
      "20": 2705,
      "▁हेतु": 2706,
      "▁लक्ष": 2707,
      "▁इनका": 2708,
      "▁वर्णन": 2709,
      "▁दि": 2710,
      "▁बॉ": 2711,
      "र्प": 2712,
      "ाता": 2713,
      "देव": 2714,
      "िद": 2715,
      "°N": 2716,
      "▁बस": 2717,
      "ाउ": 2718,
      "▁से,": 2719,
      "▁प्रशास": 2720,
      "ाजी": 2721,
      "▁प्रबंध": 2722,
      "▁स्कूल": 2723,
      "▁पूरे": 2724,
      "▁एड": 2725,
      "′N": 2726,
      "▁निर्देशांक": 2727,
      "▁विदेश": 2728,
      "▁प्रदर्शन": 2729,
      "गो": 2730,
      "▁आते": 2731,
      "▁नई": 2732,
      "▁विप": 2733,
      "▁d": 2734,
      "▁ट्रे": 2735,
      "न्त्र": 2736,
      "तिहासिक": 2737,
      "▁हुई।": 2738,
      "▁स्थानीय": 2739,
      "▁समाप्त": 2740,
      "स्ल": 2741,
      "▁पड़ा": 2742,
      "ing": 2743,
      "▁समस्या": 2744,
      "▁अक्ष": 2745,
      "▁क्रिकेट": 2746,
      "फ्ट": 2747,
      "चान": 2748,
      "°E": 2749,
      "▁आत्म": 2750,
      "▁पंच": 2751,
      "▁हे": 2752,
      "▁संग्रह": 2753,
      "′E": 2754,
      "▁इंग्ल": 2755,
      "▁विस्तार": 2756,
      "▁दर्शन": 2757,
      "▁कठ": 2758,
      "▁द्वितीय": 2759,
      "▁ज्यादा": 2760,
      "ादी": 2761,
      "न्यास": 2762,
      "▁बंद": 2763,
      "▁लाभ": 2764,
      "▁राजनीतिक": 2765,
      "त्री": 2766,
      "▁ब्ल": 2767,
      "▁अफ्री": 2768,
      "ियाई": 2769,
      "▁लंब": 2770,
      "▁विभाज": 2771,
      "▁85": 2772,
      "ेंस": 2773,
      "▁अंतर्राष्ट्रीय": 2774,
      "▁प्रभावित": 2775,
      "▁बोल": 2776,
      "▁लौ": 2777,
      "▁अंतिम": 2778,
      "▁तकनी": 2779,
      "▁ते": 2780,
      "▁प्रचल": 2781,
      "▁सां": 2782,
      "्वज": 2783,
      "ोजित": 2784,
      "▁अवधि": 2785,
      "ड्ड": 2786,
      "डे": 2787,
      "▁निर्देशांक:": 2788,
      "▁एक्स": 2789,
      "▁ति": 2790,
      "विधा": 2791,
      "रम": 2792,
      "▁ऑफ़": 2793,
      "▁रु": 2794,
      ".4": 2795,
      "ैक": 2796,
      "▁कथा": 2797,
      "▁रोम": 2798,
      "िली": 2799,
      "ृह": 2800,
      "▁महार": 2801,
      "▁पर्य": 2802,
      "स्वर": 2803,
      "▁केन्द्र": 2804,
      "ol": 2805,
      "▁वृद्धि": 2806,
      "▁सिक": 2807,
      "▁राय": 2808,
      "लि": 2809,
      "स्क": 2810,
      "▁परिवर्तन": 2811,
      "वेद": 2812,
      "▁निर्वा": 2813,
      "▁मनुष": 2814,
      "ेंड": 2815,
      "▁रू": 2816,
      "▁आवश्यकता": 2817,
      "पूर्व": 2818,
      "▁पुस्तक": 2819,
      "भाष": 2820,
      "भाषा": 2821,
      "as": 2822,
      "▁प्रती": 2823,
      "▁जे": 2824,
      "▁रिक": 2825,
      "स्व": 2826,
      "सभा": 2827,
      "▁तट": 2828,
      "▁संगठन": 2829,
      "▁मैं": 2830,
      "▁इस्ला": 2831,
      "▁हिंदी": 2832,
      "कु": 2833,
      "▁आबाद": 2834,
      "लेज": 2835,
      "▁24": 2836,
      "▁रखने": 2837,
      "▁धार्मिक": 2838,
      "▁पर्वत": 2839,
      "▁वाप": 2840,
      "हन": 2841,
      "▁भौतिक": 2842,
      "▁लिए,": 2843,
      "▁तरी": 2844,
      "▁शुरुआत": 2845,
      "▁लेने": 2846,
      "▁दा": 2847,
      "▁थी।\n": 2848,
      "▁30": 2849,
      "▁मो": 2850,
      "▁कोड": 2851,
      "▁विशाल": 2852,
      ".8": 2853,
      "▁पुरुष": 2854,
      "▁पाठ": 2855,
      "▁जनता": 2856,
      "▁शाह": 2857,
      "न्दर": 2858,
      "▁क्षमता": 2859,
      "िको": 2860,
      "▁गीत": 2861,
      "▁कौ": 2862,
      "▁दूरी": 2863,
      "▁संबंधित": 2864,
      "ताल": 2865,
      "▁जाति": 2866,
      "▁माता": 2867,
      "▁ऐतिहासिक": 2868,
      "ोर्ड": 2869,
      "▁दूसरा": 2870,
      "▁निकट": 2871,
      "▁शैली": 2872,
      "ूँ": 2873,
      "▁सूर्": 2874,
      "▁मैच": 2875,
      "वै": 2876,
      "▁व्यापक": 2877,
      "▁बैठ": 2878,
      "▁तत्व": 2879,
      "▁बाद,": 2880,
      "▁हिन्दू": 2881,
      "▁बर्": 2882,
      "्रो": 2883,
      "थित": 2884,
      "▁आता": 2885,
      "▁प्रतिश": 2886,
      "▁चै": 2887,
      "▁इन्हें": 2888,
      "▁विद्व": 2889,
      "वासी": 2890,
      "▁खे": 2891,
      "am": 2892,
      "▁यून": 2893,
      "▁रक्त": 2894,
      "▁आरंभ": 2895,
      "▁ग्री": 2896,
      "ब्ल": 2897,
      "▁विवाह": 2898,
      "▁सात": 2899,
      "▁समुद्र": 2900,
      "▁सुविधा": 2901,
      "फा": 2902,
      "▁पुल": 2903,
      "वंश": 2904,
      "▁विधि": 2905,
      "▁पश्चात": 2906,
      "▁पंजा": 2907,
      "ur": 2908,
      "▁अली": 2909,
      "▁नर": 2910,
      "▁श्रेणी": 2911,
      "▁मिश्र": 2912,
      "▁सित": 2913,
      "▁अर्था": 2914,
      "▁प्रस्तुत": 2915,
      "▁रहे।": 2916,
      "▁तेल": 2917,
      "▁दिशा": 2918,
      "▁किया।\n": 2919,
      "▁78": 2920,
      "▁नियंत्रण": 2921,
      "वाले": 2922,
      "सत": 2923,
      "▁निकाल": 2924,
      "▁इनकी": 2925,
      "कारों": 2926,
      "िज़": 2927,
      "▁तम": 2928,
      "डिया": 2929,
      "▁मिस": 2930,
      "▁2008": 2931,
      "▁वज": 2932,
      "पा": 2933,
      "▁उद्देश्य": 2934,
      "शल": 2935,
      "ष्य": 2936,
      "▁प्रसार": 2937,
      "▁पश": 2938,
      "▁संस्करण": 2939,
      "▁लॉ": 2940,
      "▁संस्कृति": 2941,
      "ेस": 2942,
      "▁संस": 2943,
      "▁मीटर": 2944,
      "▁कमी": 2945,
      "एम": 2946,
      "▁आबादी": 2947,
      "गोल": 2948,
      "सिंह": 2949,
      "▁इन्होंने": 2950,
      "▁D": 2951,
      "मिक": 2952,
      "विज्ञान": 2953,
      "स्वरूप": 2954,
      "▁ऊँच": 2955,
      "दर": 2956,
      "▁न्याया": 2957,
      "दाय": 2958,
      "▁कोशिका": 2959,
      "▁जीत": 2960,
      "▁2007": 2961,
      "▁पांच": 2962,
      "मंत्री": 2963,
      "लिख": 2964,
      "▁छा": 2965,
      "▁सुन": 2966,
      "ादा": 2967,
      "▁धारा": 2968,
      "▁सम्": 2969,
      "▁उम": 2970,
      "जु": 2971,
      "▁हास": 2972,
      "▁विल": 2973,
      "▁स्वीकार": 2974,
      "▁निर": 2975,
      "ायर": 2976,
      "▁बेह": 2977,
      "▁समुदाय": 2978,
      "▁दिए": 2979,
      "▁जनवरी": 2980,
      "ेश्वर": 2981,
      "लेक्ट": 2982,
      "▁कांग्रेस": 2983,
      "▁प्रतिशत": 2984,
      "▁कृष्ण": 2985,
      "▁प्राकृतिक": 2986,
      "▁हों": 2987,
      "▁बर": 2988,
      "त्रों": 2989,
      "▁कार्ब": 2990,
      "▁एंड": 2991,
      "▁फ्रांस": 2992,
      "▁मिली": 2993,
      "▁स्र": 2994,
      "▁=": 2995,
      "▁प्रस": 2996,
      "▁रोक": 2997,
      "▁सहित": 2998,
      "▁पढ़": 2999,
      "ूर्ण": 3000,
      "▁ऑस्ट्र": 3001,
      "रित": 3002,
      "▁मोट": 3003,
      "▁अवस्था": 3004,
      "▁and": 3005,
      "▁निश्च": 3006,
      "▁राष्ट्रपति": 3007,
      "▁दिखाई": 3008,
      "▁करें": 3009,
      "▁ऊर्जा": 3010,
      "▁बहु": 3011,
      "▁जिन्हें": 3012,
      "टे": 3013,
      "il": 3014,
      "ठी": 3015,
      "▁पीछ": 3016,
      "▁सामने": 3017,
      "▁प्रतिनि": 3018,
      "▁सूर्य": 3019,
      "चार्य": 3020,
      "▁सिर": 3021,
      "▁अरब": 3022,
      "▁खुद": 3023,
      "11": 3024,
      "▁मंत्र": 3025,
      "ac": 3026,
      "▁खिलाफ": 3027,
      "▁रेड": 3028,
      "▁सुरक्षा": 3029,
      "▁शाखा": 3030,
      "▁192": 3031,
      "▁आयु": 3032,
      "▁मही": 3033,
      "▁जून": 3034,
      "▁वायु": 3035,
      "▁नम": 3036,
      "▁डिज": 3037,
      "▁शक": 3038,
      "-म": 3039,
      "▁मई": 3040,
      "▁धन": 3041,
      "▁उपकरण": 3042,
      "धे": 3043,
      ".0": 3044,
      "▁मूर्": 3045,
      "लग": 3046,
      "लिखित": 3047,
      "ीकरण": 3048,
      "▁कहला": 3049,
      "▁वस्तु": 3050,
      "om": 3051,
      "आर": 3052,
      "▁व्यवहार": 3053,
      "▁चिकित्सा": 3054,
      "▁H": 3055,
      "▁देवी": 3056,
      "▁N": 3057,
      "ग़": 3058,
      "▁अपे": 3059,
      "भाग": 3060,
      "▁धी": 3061,
      "बद्ध": 3062,
      "्रिया": 3063,
      "तियों": 3064,
      "्वीप": 3065,
      "▁धात": 3066,
      "▁बनाए": 3067,
      "इन": 3068,
      "▁बांग": 3069,
      "लाह": 3070,
      "ज़र": 3071,
      "▁अंतर्गत": 3072,
      "▁स्थल": 3073,
      "गम": 3074,
      "▁सुधार": 3075,
      "ंपरा": 3076,
      "▁बताया": 3077,
      "▁पहचान": 3078,
      "राष्ट्रीय": 3079,
      "▁समर्थन": 3080,
      "ृत्व": 3081,
      "इस": 3082,
      "▁प्रदर्शित": 3083,
      "जात": 3084,
      "▁बैंक": 3085,
      "ुद्ध": 3086,
      "▁जाप": 3087,
      "▁बजे": 3088,
      "▁बज": 3089,
      "▁2009": 3090,
      "▁गुरु": 3091,
      "▁परंतु": 3092,
      "▁प्रेम": 3093,
      "ना,": 3094,
      "▁मदद": 3095,
      "इड": 3096,
      "▁डाल": 3097,
      "▁दिस": 3098,
      "▁भु": 3099,
      "द्वीप": 3100,
      "▁सहयोग": 3101,
      "▁गांव": 3102,
      "▁G": 3103,
      "ent": 3104,
      "श्वर": 3105,
      "▁हवाई": 3106,
      "▁जानकारी": 3107,
      "▁विद्युत": 3108,
      "▁घोषणा": 3109,
      "▁R": 3110,
      "▁प्रचलित": 3111,
      "नगर": 3112,
      "▁परन्तु": 3113,
      "▁पुराने": 3114,
      "▁निर्मित": 3115,
      "▁मल": 3116,
      "▁मार्च": 3117,
      "▁परीक्षण": 3118,
      "▁पड़ता": 3119,
      "▁गांधी": 3120,
      "▁पैदा": 3121,
      "नो": 3122,
      "िकल": 3123,
      "▁घंट": 3124,
      "ay": 3125,
      "▁स्वतंत्रता": 3126,
      "▁नेट": 3127,
      "▁भाई": 3128,
      "▁नेत": 3129,
      "ोरी": 3130,
      "▁अनुमान": 3131,
      "▁मर": 3132,
      "▁अध्यक्ष": 3133,
      "▁दिनों": 3134,
      "▁करी": 3135,
      "▁संके": 3136,
      "▁तंत्र": 3137,
      "-सा": 3138,
      "▁लै": 3139,
      "▁नियु": 3140,
      "▁कम्प": 3141,
      "▁दक्षिणी": 3142,
      "वें": 3143,
      "▁हज": 3144,
      "▁इंग्लैंड": 3145,
      "▁पद्ध": 3146,
      "▁कोल": 3147,
      "हि": 3148,
      "ूबर": 3149,
      "▁वजह": 3150,
      "▁माइ": 3151,
      "एल": 3152,
      "▁शिक": 3153,
      "▁अल्": 3154,
      "▁उपस्थित": 3155,
      "िया,": 3156,
      "▁परंपरा": 3157,
      "टल": 3158,
      "▁दिव": 3159,
      "▁इन्": 3160,
      "▁निर्ण": 3161,
      "▁करे": 3162,
      "▁शीर्ष": 3163,
      "▁हाल": 3164,
      "▁भीतर": 3165,
      "▁स्म": 3166,
      "▁मिन": 3167,
      "▁नेतृत्व": 3168,
      "रि": 3169,
      "▁अगर": 3170,
      "▁किन्तु": 3171,
      "▁सूची": 3172,
      "▁सुल": 3173,
      "▁शे": 3174,
      "ंबई": 3175,
      "▁कहानी": 3176,
      "▁बाज": 3177,
      "▁क्या": 3178,
      "▁आंद": 3179,
      "▁अफ्रीका": 3180,
      "-प्र": 3181,
      "▁अगस्त": 3182,
      "▁आरम्भ": 3183,
      "▁चरण": 3184,
      "्टर": 3185,
      "▁एक्": 3186,
      "▁है;": 3187,
      "▁बिल": 3188,
      "्यूटर": 3189,
      "▁प्रेर": 3190,
      "मति": 3191,
      "▁संभ": 3192,
      "▁सम्बन्ध": 3193,
      "▁री": 3194,
      "▁हार": 3195,
      "वस्था": 3196,
      "▁टै": 3197,
      "स्थ्य": 3198,
      "▁सैनिक": 3199,
      "▁बांग्ला": 3200,
      "त्त्व": 3201,
      "ांड": 3202,
      "▁पिछ": 3203,
      "▁जिसकी": 3204,
      "▁प्रौ": 3205,
      "▁चाहिए।": 3206,
      "▁अभिने": 3207,
      "ad": 3208,
      "▁मिट": 3209,
      "▁मौजूद": 3210,
      "30": 3211,
      "▁प्रमाण": 3212,
      "▁किमी": 3213,
      "▁शक्त": 3214,
      "▁भे": 3215,
      "▁यौ": 3216,
      "▁अभिया": 3217,
      "▁अन्तर": 3218,
      "ग्री": 3219,
      "▁गा": 3220,
      "▁कश": 3221,
      "▁तहत": 3222,
      "▁अनुसंध": 3223,
      "्ज": 3224,
      "▁अप्रैल": 3225,
      "▁लक्षण": 3226,
      "ोफ": 3227,
      "▁राज्यों": 3228,
      "▁कृषि": 3229,
      "▁आकर्ष": 3230,
      "ीक": 3231,
      "▁वार": 3232,
      "विधान": 3233,
      "एन": 3234,
      "हरी": 3235,
      "▁आश": 3236,
      "षद": 3237,
      "▁एयर": 3238,
      "म्मद": 3239,
      "जरा": 3240,
      "un": 3241,
      "डल": 3242,
      "स्ताव": 3243,
      "▁191": 3244,
      "▁जोड़": 3245,
      "el": 3246,
      "▁साधारण": 3247,
      "▁भाष": 3248,
      "▁संभाव": 3249,
      "▁आलो": 3250,
      "▁अंक": 3251,
      "▁उपन्यास": 3252,
      "▁खा": 3253,
      "डियो": 3254,
      "▁काव्य": 3255,
      "लेक्ट्र": 3256,
      "▁बेट": 3257,
      "▁श्रृंखला": 3258,
      "सू": 3259,
      "▁जम": 3260,
      "▁संरचना": 3261,
      "▁बाव": 3262,
      "▁भाषाओं": 3263,
      "▁स्रोत": 3264,
      "▁लिप": 3265,
      "्राम": 3266,
      "स्लिम": 3267,
      "▁लगता": 3268,
      "▁पाए": 3269,
      "▁छोटी": 3270,
      "▁h": 3271,
      "▁सम्मानित": 3272,
      ".2": 3273,
      "▁अक्ट": 3274,
      "▁देती": 3275,
      "न्थ": 3276,
      "▁उनमें": 3277,
      "▁जिसने": 3278,
      "भारत": 3279,
      "▁सूचना": 3280,
      "▁ट्रेन": 3281,
      "▁महाराज": 3282,
      "▁हिम": 3283,
      "लीय": 3284,
      "▁शब्दों": 3285,
      "▁भागों": 3286,
      "▁मिलती": 3287,
      "▁ग्रे": 3288,
      "▁पीछे": 3289,
      "▁चम": 3290,
      "▁विश्वास": 3291,
      "▁प्रतिक": 3292,
      "शि": 3293,
      "▁कानून": 3294,
      "▁अक्टूबर": 3295,
      "▁2006": 3296,
      "ऊँ": 3297,
      "▁अपेक्षा": 3298,
      "दमी": 3299,
      "णों": 3300,
      "्रिय": 3301,
      "▁मुह": 3302,
      "गा।": 3303,
      "न्य": 3304,
      "म,": 3305,
      "▁प्ले": 3306,
      "▁ऊंच": 3307,
      "▁शोध": 3308,
      "▁सार्वज": 3309,
      "▁योगदान": 3310,
      "तौर": 3311,
      "स,": 3312,
      "▁थीं।": 3313,
      "▁नागरिक": 3314,
      "▁राजनीति": 3315,
      "िटी": 3316,
      "▁जुलाई": 3317,
      "▁मना": 3318,
      "▁मश": 3319,
      "▁अनुसंधान": 3320,
      "▁प्रस्ताव": 3321,
      "िवार": 3322,
      "▁साक्ष": 3323,
      "▁स्वास्थ्य": 3324,
      "पे": 3325,
      "▁सफलता": 3326,
      "▁आक्रमण": 3327,
      "ानु": 3328,
      "राब": 3329,
      "धारित": 3330,
      "▁मन्द": 3331,
      "▁मनुष्य": 3332,
      "ॉर्ड": 3333,
      "50": 3334,
      "िनियम": 3335,
      "ियोग": 3336,
      "▁मोह": 3337,
      "ल्ल": 3338,
      "▁सागर": 3339,
      "ोद": 3340,
      "▁F": 3341,
      "▁सप": 3342,
      "ाइम": 3343,
      "▁मानते": 3344,
      "मत": 3345,
      "ज़ा": 3346,
      "▁E": 3347,
      "▁सड़": 3348,
      "▁बंगाल": 3349,
      "▁ऑस्ट्रेल": 3350,
      "▁पर,": 3351,
      "▁करोड़": 3352,
      "▁दौ": 3353,
      "▁बल्कि": 3354,
      "▁माँ": 3355,
      "ुड": 3356,
      "खी": 3357,
      "▁शि": 3358,
      "▁n": 3359,
      "▁मुस्लिम": 3360,
      "▁U": 3361,
      "▁की,": 3362,
      "▁21": 3363,
      "ोड़ा": 3364,
      "▁कुमा": 3365,
      "▁कॉलेज": 3366,
      "▁गौ": 3367,
      "▁वापस": 3368,
      "▁प्रोट": 3369,
      "▁बच्चों": 3370,
      "▁चीनी": 3371,
      "▁बां": 3372,
      "▁महास": 3373,
      "▁चक्र": 3374,
      "▁खान": 3375,
      "▁सार्वजनिक": 3376,
      "▁माप": 3377,
      "▁वहां": 3378,
      "चित्र": 3379,
      "▁चू": 3380,
      "us": 3381,
      "▁to": 3382,
      "▁बढ़ा": 3383,
      "▁विमानक्षेत्र": 3384,
      "▁दिखा": 3385,
      "रीय": 3386,
      "ष्म": 3387,
      "▁झील": 3388,
      "ग्": 3389,
      "▁दस": 3390,
      "▁पाँच": 3391,
      "▁उत्स": 3392,
      "▁पो": 3393,
      "र्षि": 3394,
      "▁गैर": 3395,
      "▁उत्": 3396,
      "▁एच": 3397,
      "▁फुट": 3398,
      "▁यूरोपीय": 3399,
      "▁सर्वा": 3400,
      "िति": 3401,
      "▁जैसा": 3402,
      "▁निर्भर": 3403,
      "▁मनो": 3404,
      "▁उन्": 3405,
      "▁निम्नलिखित": 3406,
      "▁प्रान्त": 3407,
      "▁अश": 3408,
      "▁वित्त": 3409,
      "क्षेप": 3410,
      "▁फी": 3411,
      "ूरत": 3412,
      ".6": 3413,
      "चि": 3414,
      "थर": 3415,
      "▁ब्रिटेन": 3416,
      "▁किन": 3417,
      "▁पट": 3418,
      "▁लाइ": 3419,
      "ंडी": 3420,
      "▁मेल": 3421,
      "▁ब्राह": 3422,
      "ड़ियों": 3423,
      "▁ग्राम": 3424,
      "▁शासक": 3425,
      "▁गढ़": 3426,
      "▁L": 3427,
      "▁अस्त": 3428,
      "र्घ": 3429,
      "ंतर": 3430,
      "▁प्रौद्योग": 3431,
      "▁निवास": 3432,
      "▁सरकारी": 3433,
      "▁उपचार": 3434,
      "▁पद्धति": 3435,
      "िक्स": 3436,
      "▁ठीक": 3437,
      "▁अतः": 3438,
      "▁l": 3439,
      "▁डिग": 3440,
      "▁आयोजित": 3441,
      "ष्क": 3442,
      "▁उसमें": 3443,
      "▁तमिल": 3444,
      "▁रक्षा": 3445,
      "ब्ब": 3446,
      "▁रि": 3447,
      "ियोजना": 3448,
      "िस्थित": 3449,
      "▁अफ़": 3450,
      "▁खास": 3451,
      "▁कश्मी": 3452,
      "▁वास्तविक": 3453,
      "▁वाह": 3454,
      "▁बाग": 3455,
      "्से": 3456,
      "▁मन्दिर": 3457,
      "▁मुक्त": 3458,
      "▁कुमाऊँ": 3459,
      "▁चुके": 3460,
      "रोध": 3461,
      "्‍य": 3462,
      "▁कहीं": 3463,
      "न्ट": 3464,
      "▁संविधान": 3465,
      "▁प्रयुक्त": 3466,
      "▁बुद्ध": 3467,
      "दम": 3468,
      "▁देखने": 3469,
      "▁विजय": 3470,
      "▁मुंबई": 3471,
      "▁ध्व": 3472,
      "▁28": 3473,
      "▁गाय": 3474,
      "▁विविध": 3475,
      "नपुर": 3476,
      "▁पक": 3477,
      "▁स्वरूप": 3478,
      "▁जैसी": 3479,
      "▁गंगा": 3480,
      "▁आंदोलन": 3481,
      "▁परियोजना": 3482,
      "▁औसत": 3483,
      "▁डिग्री": 3484,
      "गणना": 3485,
      "▁खंड": 3486,
      "▁इलेक्ट्र": 3487,
      "ंसा": 3488,
      "▁संय": 3489,
      "▁अध्या": 3490,
      "▁अनुवाद": 3491,
      "▁50": 3492,
      "▁2010": 3493,
      "बार": 3494,
      "रवरी": 3495,
      "▁श्व": 3496,
      "▁डॉ॰": 3497,
      "-साथ": 3498,
      "▁आए": 3499,
      "▁न्याय": 3500,
      "पास": 3501,
      "▁कविता": 3502,
      "त्तर": 3503,
      "वेयर": 3504,
      "▁अंतरराष्ट्रीय": 3505,
      "▁उससे": 3506,
      "▁संचालित": 3507,
      "▁ज्ञात": 3508,
      "ली,": 3509,
      "▁नीति": 3510,
      "नर": 3511,
      "िना": 3512,
      "▁बेल": 3513,
      "▁लु": 3514,
      "▁ताकि": 3515,
      "ुरा": 3516,
      "▁कट": 3517,
      "▁उम्र": 3518,
      "▁26": 3519,
      "▁हालांकि,": 3520,
      "ष्णु": 3521,
      "▁प्रकृति": 3522,
      "▁रस": 3523,
      "ंका": 3524,
      "प्प": 3525,
      "▁रिप": 3526,
      "▁थीं": 3527,
      "ंदन": 3528,
      "▁इत्या": 3529,
      "▁चुका": 3530,
      "ष्ट्र": 3531,
      "▁सहायक": 3532,
      "▁चाल": 3533,
      "खंड": 3534,
      "▁पंजाब": 3535,
      "▁100": 3536,
      "वर्ती": 3537,
      "ृति": 3538,
      "▁आठ": 3539,
      "▁जिन्होंने": 3540,
      "et": 3541,
      "ृत्ति": 3542,
      "द्यपि": 3543,
      "▁अग्र": 3544,
      "▁व्याख्या": 3545,
      "मर": 3546,
      "▁सप्त": 3547,
      "न्या": 3548,
      "दास": 3549,
      "ताब": 3550,
      "-ज": 3551,
      "द्या": 3552,
      "▁प्रांत": 3553,
      "पुर,": 3554,
      "▁जनगणना": 3555,
      "▁इका": 3556,
      "राव": 3557,
      "पु": 3558,
      "द्रा": 3559,
      "ut": 3560,
      "▁साथ-साथ": 3561,
      "▁निजी": 3562,
      "-द": 3563,
      "क्सी": 3564,
      "▁लगाया": 3565,
      "पात": 3566,
      "्लेषण": 3567,
      "स्कृतिक": 3568,
      "ेडकर": 3569,
      "▁मान्यता": 3570,
      "▁परमाण": 3571,
      "▁संबंधी": 3572,
      "खन": 3573,
      "▁याद": 3574,
      "▁अनुभव": 3575,
      "्रु": 3576,
      "कर्ता": 3577,
      "▁रास": 3578,
      "▁यद्यपि": 3579,
      "▁निश्चित": 3580,
      "ंघ": 3581,
      "पक": 3582,
      "▁सक्रिय": 3583,
      "▁कर्": 3584,
      "▁इत्यादि": 3585,
      "▁नया": 3586,
      "धर": 3587,
      "▁विस्तृत": 3588,
      "▁W": 3589,
      "▁लागू": 3590,
      "िड": 3591,
      "वर्क": 3592,
      "▁लगी": 3593,
      "▁संकेत": 3594,
      "क्ष्म": 3595,
      "▁रेखा": 3596,
      "▁मात्र": 3597,
      "▁तरफ": 3598,
      "ृत्य": 3599,
      "▁प्रशिक्ष": 3600,
      "▁फार": 3601,
      "▁हो।": 3602,
      "▁भोजन": 3603,
      "ंटी": 3604,
      "▁उपा": 3605,
      "स्टर": 3606,
      "▁22": 3607,
      "ागर": 3608,
      "रीत": 3609,
      "ॉम": 3610,
      "▁सदस्यों": 3611,
      "▁जर्मनी": 3612,
      "▁उड़": 3613,
      "फ़ी": 3614,
      "▁प्रचार": 3615,
      "टिल": 3616,
      "▁निर्णय": 3617,
      "▁अम्": 3618,
      "▁कुर": 3619,
      "▁लो": 3620,
      "▁गैस": 3621,
      "▁पाय": 3622,
      "▁अच्छी": 3623,
      "्वा": 3624,
      "▁हासिल": 3625,
      "▁सम्र": 3626,
      "▁190": 3627,
      "▁मिनट": 3628,
      "▁डि": 3629,
      "▁सर्वाधिक": 3630,
      "▁इंटरनेट": 3631,
      "▁चर": 3632,
      "ॉप": 3633,
      "चर": 3634,
      "▁अधिकतर": 3635,
      "▁मुख्यालय": 3636,
      "▁लेखक": 3637,
      "वाया": 3638,
      "▁हाइड": 3639,
      "▁संभव": 3640,
      "▁साइ": 3641,
      "▁राजस्थान": 3642,
      "▁रूस": 3643,
      "शाला": 3644,
      "ियत": 3645,
      "▁स्थानों": 3646,
      "▁जैन": 3647,
      "चक": 3648,
      "▁सभ": 3649,
      "िस्त": 3650,
      "नाम": 3651,
      "▁आमतौर": 3652,
      "श्रे": 3653,
      "लाल": 3654,
      "▁वेब": 3655,
      "▁तल": 3656,
      "▁अभिन": 3657,
      "▁हो,": 3658,
      "▁खो": 3659,
      "▁भावना": 3660,
      "फर": 3661,
      "▁खरी": 3662,
      "गार": 3663,
      "▁हुए।": 3664,
      "▁घंटे": 3665,
      "ीद": 3666,
      "▁मंत्री": 3667,
      "\",": 3668,
      "ठा": 3669,
      "्क": 3670,
      "सीसी": 3671,
      "▁आइ": 3672,
      "▁नेपाल": 3673,
      "▁अका": 3674,
      "ार्ग": 3675,
      "▁आसपास": 3676,
      "ॉक": 3677,
      "▁समिति": 3678,
      "▁2005": 3679,
      "ंडा": 3680,
      "▁सामग्री": 3681,
      "▁सीमित": 3682,
      "▁पुलिस": 3683,
      "▁बावजूद": 3684,
      "▁मेट": 3685,
      "▁गुजरा": 3686,
      "▁को,": 3687,
      "▁आन": 3688,
      "▁{": 3689,
      "ला,": 3690,
      "ूब": 3691,
      "गंज": 3692,
      "ेंद": 3693,
      "▁सांस्कृतिक": 3694,
      "▁संसद": 3695,
      "▁अद": 3696,
      "▁विपरीत": 3697,
      "-आ": 3698,
      "▁सही": 3699,
      "यान": 3700,
      "▁अड्ड": 3701,
      "▁गर्": 3702,
      "शनल": 3703,
      "▁मिले": 3704,
      "ंकर": 3705,
      "▁प्रौद्योगिकी": 3706,
      "▁रहा।": 3707,
      "▁ब्राह्म": 3708,
      "▁गणना": 3709,
      "ण,": 3710,
      "▁सम्राट": 3711,
      "im": 3712,
      "रेट": 3713,
      "▁प्रय": 3714,
      "▁दुर्ग": 3715,
      "स्ती": 3716,
      "▁अनुमति": 3717,
      "▁सें": 3718,
      "▁दृष्ट": 3719,
      "▁तत्": 3720,
      "▁गल": 3721,
      "व्र": 3722,
      "▁नग": 3723,
      "▁नेता": 3724,
      "▁महारा": 3725,
      "सिक": 3726,
      "णु": 3727,
      "▁सिर्": 3728,
      "pl": 3729,
      "▁पत्नी": 3730,
      "▁मामले": 3731,
      "▁शो": 3732,
      "▁पूजा": 3733,
      "▁बनाई": 3734,
      "्पना": 3735,
      "▁निर्धारित": 3736,
      "ख्यात": 3737,
      "ादन": 3738,
      "▁अधिनियम": 3739,
      "▁ज्यो": 3740,
      "राम": 3741,
      "प्रदेश": 3742,
      "▁न्यायालय": 3743,
      "-ए": 3744,
      "▁बांग्लादेश": 3745,
      "▁शुरु": 3746,
      "▁सरल": 3747,
      "▁अंग्रेज़ी": 3748,
      "▁धीरे": 3749,
      "▁रसाय": 3750,
      "▁नेटवर्क": 3751,
      "स्य": 3752,
      "▁अत्यंत": 3753,
      "ॉफ्ट": 3754,
      "बर्ग": 3755,
      "▁नियुक्त": 3756,
      "▁लेते": 3757,
      "▁नद": 3758,
      "▁पत्रिका": 3759,
      "वों": 3760,
      "▁अधीन": 3761,
      "ec": 3762,
      "▁अनुसार,": 3763,
      "▁संश": 3764,
      "बू": 3765,
      "▁संघर्ष": 3766,
      "▁करीब": 3767,
      "▁दृश्य": 3768,
      "▁23": 3769,
      "ोरा": 3770,
      "ोत्स": 3771,
      "▁मू": 3772,
      "▁लिखी": 3773,
      "निर्": 3774,
      "ेय": 3775,
      "▁चलता": 3776,
      "10": 3777,
      "▁भारी": 3778,
      "▁कार्यों": 3779,
      "▁मामलों": 3780,
      "▁मुसल": 3781,
      "▁सत्य": 3782,
      "ाद्य": 3783,
      "▁मिट्टी": 3784,
      "▁व्याव": 3785,
      "▁होगी": 3786,
      "▁कैल": 3787,
      "▁मिलते": 3788,
      "▁रखते": 3789,
      "▁धातु": 3790,
      "▁देना": 3791,
      "▁सारे": 3792,
      "▁अमरी": 3793,
      "धिकारिक": 3794,
      "▁मिलियन": 3795,
      "▁वास्तव": 3796,
      "▁प्रारंभिक": 3797,
      "▁तिर": 3798,
      "▁सतह": 3799,
      "ाटी": 3800,
      "▁निर्वाचन": 3801,
      "▁तापमान": 3802,
      "▁क्व": 3803,
      "▁व्यवसाय": 3804,
      "▁बोली": 3805,
      "▁शास्त्र": 3806,
      "नै": 3807,
      "▁प्रतिनिध": 3808,
      "▁दिल": 3809,
      "यल": 3810,
      "▁विद्र": 3811,
      "▁पर्याप्त": 3812,
      "िकोण": 3813,
      "▁आती": 3814,
      "ुरी": 3815,
      "▁जहा": 3816,
      "ot": 3817,
      "भु": 3818,
      "▁लीग": 3819,
      "▁मध": 3820,
      "▁विभाजित": 3821,
      "▁एक्स्प": 3822,
      "▁सूक्ष्म": 3823,
      "▁छोटा": 3824,
      "▁घोषित": 3825,
      "▁रै": 3826,
      "▁सर्वो": 3827,
      "▁दै": 3828,
      "▁इस्लाम": 3829,
      "▁बाजार": 3830,
      "▁दब": 3831,
      "▁इंजीन": 3832,
      "ia": 3833,
      "ंजन": 3834,
      "▁विदेशी": 3835,
      "▁भवि": 3836,
      "▁परिस": 3837,
      "▁40": 3838,
      "▁हवा": 3839,
      "▁आधिकारिक": 3840,
      "डम": 3841,
      "▁मैदान": 3842,
      "▁ग्रन्थ": 3843,
      "थमिक": 3844,
      "ियल": 3845,
      "ेंगे": 3846,
      "▁प्रतियोग": 3847,
      "ातर": 3848,
      "क्टर": 3849,
      "ान,": 3850,
      "न्ड": 3851,
      "▁कोशिश": 3852,
      "▁वेल": 3853,
      "▁चले": 3854,
      "राध": 3855,
      "▁वीर": 3856,
      "▁टेली": 3857,
      "▁चन्द्र": 3858,
      "बंधित": 3859,
      "▁विधानसभा": 3860,
      "▁प्राथमिक": 3861,
      "▁जिनके": 3862,
      "टों": 3863,
      "▁आदेश": 3864,
      "▁मांग": 3865,
      "िलित": 3866,
      "▁सत्ता": 3867,
      "▁मास": 3868,
      "▁घट": 3869,
      "▁अक": 3870,
      "▁संद": 3871,
      "▁अत्यधिक": 3872,
      "▁परमाणु": 3873,
      "कुल": 3874,
      "▁साध": 3875,
      "▁फ्ल": 3876,
      "वेश": 3877,
      "▁महिलाओं": 3878,
      "▁वेद": 3879,
      "▁इंडिया": 3880,
      "▁सेंट": 3881,
      "▁भविष्य": 3882,
      "ation": 3883,
      "▁उन्होने": 3884,
      "▁इमार": 3885,
      "▁गोल": 3886,
      "▁औद्योग": 3887,
      "▁किंग": 3888,
      "च्छा": 3889,
      "▁सिल": 3890,
      "▁निष्": 3891,
      "▁खिलाड़ी": 3892,
      "▁एक्स्प्रेस": 3893,
      "भू": 3894,
      "ुग": 3895,
      "▁गू": 3896,
      "न्ना": 3897,
      "▁हिस्से": 3898,
      "▁नृत्य": 3899,
      "▁ईस": 3900,
      "▁शेष": 3901,
      "▁बरा": 3902,
      "नाइट": 3903,
      "ष्प": 3904,
      "रिक्ष": 3905,
      "▁दू": 3906,
      "id": 3907,
      "वाली": 3908,
      "▁रिकॉर्ड": 3909,
      "▁प्रधानमंत्री": 3910,
      "▁फूल": 3911,
      "▁विष्णु": 3912,
      "▁दी।": 3913,
      "भीर": 3914,
      "▁रात": 3915,
      "▁अहम": 3916,
      "▁स्‍": 3917,
      "▁गये।": 3918,
      "▁पर्यावरण": 3919,
      "▁चंद्र": 3920,
      "▁हिंदू": 3921,
      "▁ज्योति": 3922,
      "ृद": 3923,
      "े,": 3924,
      "▁2011": 3925,
      "रस": 3926,
      "▁बनने": 3927,
      "स्‍": 3928,
      "▁मरा": 3929,
      "▁पाई": 3930,
      "नियों": 3931,
      "य,": 3932,
      "▁जाये": 3933,
      "यण": 3934,
      "ाब": 3935,
      "▁महीने": 3936,
      "्यार": 3937,
      "तल": 3938,
      "▁गठन": 3939,
      "▁मिलकर": 3940,
      "लाव": 3941,
      "ायनिक": 3942,
      "वित्र": 3943,
      "क्षम": 3944,
      "▁दवा": 3945,
      "ig": 3946,
      "▁संगठ": 3947,
      "▁अनुर": 3948,
      "▁सूत्र": 3949,
      "दिक": 3950,
      "▁पुनः": 3951,
      "▁मुसलमान": 3952,
      "ट्र": 3953,
      "▁वर": 3954,
      "▁जुड़े": 3955,
      "▁ग़": 3956,
      "▁ड्र": 3957,
      "▁जिम": 3958,
      "▁कभी-क": 3959,
      "▁सम्मिलित": 3960,
      "▁सच": 3961,
      "र्तन": 3962,
      "▁यौग": 3963,
      "कता": 3964,
      "▁युवा": 3965,
      "▁अवश": 3966,
      "▁तीर्थ": 3967,
      "▁स्ना": 3968,
      "-वि": 3969,
      "▁ग्ल": 3970,
      "▁विद्यालय": 3971,
      "▁है:": 3972,
      "स्फ": 3973,
      "▁समाचार": 3974,
      "▁लौट": 3975,
      "▁अंदर": 3976,
      "-अलग": 3977,
      "-2": 3978,
      "▁मुर": 3979,
      "▁कश्मीर": 3980,
      "▁क्रांति": 3981,
      "गति": 3982,
      "▁गं": 3983,
      "▁एल्": 3984,
      "▁मजब": 3985,
      "▁बच्चे": 3986,
      "ज्ञा": 3987,
      "▁निर्मा": 3988,
      "न्नई": 3989,
      "यात": 3990,
      "▁e": 3991,
      "▁मूल्य": 3992,
      "व्यवस्था": 3993,
      "▁जंग": 3994,
      "▁पस": 3995,
      "▁अधिकारी": 3996,
      "त्न": 3997,
      "▁अलग-अलग": 3998,
      "ist": 3999,
      "▁प्राय:": 4000,
      "श्रेष्ठ": 4001,
      "ातार": 4002,
      "ान्": 4003,
      "ॉलर": 4004,
      "▁है-\n": 4005,
      "ारण": 4006,
      "▁स्वामी": 4007,
      "▁जिनका": 4008,
      "▁वीं": 4009,
      "न्ध्र": 4010,
      "▁लक्ष्य": 4011,
      "▁अत:": 4012,
      "▁हैं:": 4013,
      "▁आलोचना": 4014,
      "▁विशेषता": 4015,
      "▁2000": 4016,
      "ag": 4017,
      "राज्य": 4018,
      "▁महत्त्व": 4019,
      "▁घाटी": 4020,
      "▁तर्क": 4021,
      "°0": 4022,
      "उस": 4023,
      "▁नाटक": 4024,
      "▁रानी": 4025,
      "▁भवन": 4026,
      "▁कुमार": 4027,
      "ेदार": 4028,
      "घु": 4029,
      "▁आन्ध्र": 4030,
      "▁जॉ": 4031,
      "▁हमारे": 4032,
      "द्दीन": 4033,
      "▁पुराण": 4034,
      "डन": 4035,
      "▁पालन": 4036,
      "▁मुहम्मद": 4037,
      "▁कंप्यूटर": 4038,
      "▁औद्योगिक": 4039,
      "▁सिने": 4040,
      "▁कव": 4041,
      "▁प्रबंधन": 4042,
      "▁--": 4043,
      "▁राव": 4044,
      "▁शादी": 4045,
      "',": 4046,
      "▁लगातार": 4047,
      "भूम": 4048,
      "▁2014": 4049,
      "त्ती": 4050,
      "▁हुआ,": 4051,
      "▁विवाद": 4052,
      "40": 4053,
      "णि": 4054,
      "▁कैंस": 4055,
      "▁क्लब": 4056,
      "ul": 4057,
      "▁प्रतिक्रिया": 4058,
      "▁यौगिक": 4059,
      "▁79": 4060,
      "▁अच्छा": 4061,
      "▁होगा।": 4062,
      "▁अवसर": 4063,
      "बाद,": 4064,
      "ir": 4065,
      "▁व्यक्तियों": 4066,
      "▁पवित्र": 4067,
      "▁पेट": 4068,
      "▁अधार": 4069,
      "▁साह": 4070,
      "▁सैन्य": 4071,
      "ैर": 4072,
      "न्‍": 4073,
      "▁2004": 4074,
      "▁सप्तर्षि": 4075,
      "▁कन्न": 4076,
      "▁जॉन": 4077,
      "ारोह": 4078,
      "स्ति": 4079,
      "▁करा": 4080,
      "▁असम": 4081,
      "▁मॉडल": 4082,
      "दातर": 4083,
      "िश्च": 4084,
      "▁किनारे": 4085,
      "ित्य": 4086,
      "▁संदर्भ": 4087,
      "बम": 4088,
      "▁मानक": 4089,
      "▁वाता": 4090,
      "मल": 4091,
      "कुम": 4092,
      "iv": 4093,
      "▁विज्ञ": 4094,
      "ँचा": 4095,
      "▁प्रतिष्ठ": 4096,
      "▁सुल्तान": 4097,
      "्टन": 4098,
      "▁स्कॉट": 4099,
      "▁योग्य": 4100,
      "▁सक्षम": 4101,
      "▁अस्प": 4102,
      "▁सड़क": 4103,
      "▁गर्म": 4104,
      "▁परिस्थित": 4105,
      "▁प्रकाशन": 4106,
      "▁विन": 4107,
      "▁आर्": 4108,
      "▁चेन्नई": 4109,
      "ेंज": 4110,
      "कल्प": 4111,
      "▁जित": 4112,
      "▁कभी-कभी": 4113,
      "▁लम्ब": 4114,
      "सु": 4115,
      "▁फॉ": 4116,
      "▁विक्रम": 4117,
      "डु": 4118,
      "▁चर्": 4119,
      "▁नष्ट": 4120,
      "▁संवत,": 4121,
      "ेशा": 4122,
      "▁तीव्र": 4123,
      "▁हत्या": 4124,
      "केट": 4125,
      "ंडर": 4126,
      "मि": 4127,
      "▁तरीके": 4128,
      "▁बाँ": 4129,
      "▁वर्षा": 4130,
      "▁सिस्ट": 4131,
      "▁एज": 4132,
      "▁अकादमी": 4133,
      "▁अस्तित्व": 4134,
      "▁परम": 4135,
      "मात्र": 4136,
      "▁सिर्फ": 4137,
      "ल्क": 4138,
      "▁K": 4139,
      "ोग्राम": 4140,
      "▁मित्र": 4141,
      "▁अर्थात्": 4142,
      "▁रासायनिक": 4143,
      "ैया": 4144,
      "▁प्रकट": 4145,
      "▁अल्प": 4146,
      "▁सुंदर": 4147,
      "▁सर्वश्रेष्ठ": 4148,
      "▁जीवा": 4149,
      "▁रुप": 4150,
      "▁वस्तुओं": 4151,
      "▁वहीं": 4152,
      "▁ईश्वर": 4153,
      "▁पहल": 4154,
      "▁चर्च": 4155,
      "लम": 4156,
      "र्मा": 4157,
      "▁परिषद": 4158,
      "थी": 4159,
      "▁लंदन": 4160,
      "▁युक्त": 4161,
      "▁बराबर": 4162,
      "धारा": 4163,
      "▁महल": 4164,
      "▁पिछले": 4165,
      "▁जापान": 4166,
      "▁वर्गी": 4167,
      ".3": 4168,
      "वर्ष": 4169,
      "▁बिक": 4170,
      "▁समी": 4171,
      "▁डिजाइन": 4172,
      "्ताह": 4173,
      "▁उल्लेखनीय": 4174,
      "ूनी": 4175,
      "▁चारों": 4176,
      "वीय": 4177,
      "िकन": 4178,
      "चय": 4179,
      "▁प्रतियोगिता": 4180,
      "▁इतना": 4181,
      "▁संभावना": 4182,
      "▁डाय": 4183,
      "▁समझौ": 4184,
      "मार्ग": 4185,
      "ेंडर": 4186,
      "▁सन्द": 4187,
      "▁पृष्ठ": 4188,
      "ैट": 4189,
      "▁वातावरण": 4190,
      "▁V": 4191,
      "▁गृह": 4192,
      "श्म": 4193,
      "▁चुन": 4194,
      "ँचा:": 4195,
      "फ्त": 4196,
      "ोव": 4197,
      "▁विद्रोह": 4198,
      "▁सिद्धान्त": 4199,
      "▁लिपि": 4200,
      "▁भेज": 4201,
      "▁मील": 4202,
      "▁\"अ": 4203,
      "▁अंश": 4204,
      "▁दास": 4205,
      "▁गयी।": 4206,
      "▁आयोजन": 4207,
      "ेम्स": 4208,
      "▁जल्": 4209,
      "▁भेद": 4210,
      "▁हल": 4211,
      "▁इसने": 4212,
      "▁जीन": 4213,
      "▁बीज": 4214,
      "▁रसायन": 4215,
      "ंजी": 4216,
      "री,": 4217,
      "▁भ्र": 4218,
      "▁द्वार": 4219,
      "▁आत": 4220,
      "▁रिपोर्ट": 4221,
      "▁कार्यालय": 4222,
      "▁कैंसर": 4223,
      "▁,": 4224,
      "▁शांति": 4225,
      "्रेट": 4226,
      "▁गुप्त": 4227,
      "▁ईर": 4228,
      "▁इट": 4229,
      "▁गंभीर": 4230,
      "▁हॉ": 4231,
      "▁संसार": 4232,
      "▁शुद्ध": 4233,
      "▁ऑस्ट्रेलिया": 4234,
      "-श": 4235,
      "▁प्रजात": 4236,
      "▁29": 4237,
      "▁–": 4238,
      "▁फैल": 4239,
      "▁हस्त": 4240,
      "ित्त": 4241,
      "ल्प": 4242,
      "▁डॉलर": 4243,
      "▁छह": 4244,
      "▁रेडियो": 4245,
      "▁दिसम्बर": 4246,
      "ैण्ड": 4247,
      "▁अभियान": 4248,
      "ारायण": 4249,
      "▁गोर": 4250,
      "▁2001": 4251,
      "▁अगले": 4252,
      "खे": 4253,
      "19": 4254,
      "▁चैन": 4255,
      "जीव": 4256,
      "▁ईसाई": 4257,
      "▁जर्मन": 4258,
      "▁जाय": 4259,
      "▁बजाय": 4260,
      "▁विश्लेषण": 4261,
      "थे": 4262,
      "क्साइड": 4263,
      "▁माह": 4264,
      "▁चिकित्स": 4265,
      "किंग": 4266,
      "ोषण": 4267,
      "os": 4268,
      "शाह": 4269,
      "▁हुए,": 4270,
      "▁गणित": 4271,
      "▁हैं:\n": 4272,
      "▁मुझ": 4273,
      "▁निभ": 4274,
      "▁रण": 4275,
      "ुरु": 4276,
      "▁शहरों": 4277,
      "▁हमेशा": 4278,
      "बि": 4279,
      "ापन": 4280,
      "▁चाहते": 4281,
      "▁परिणामस्वरूप": 4282,
      "▁हरा": 4283,
      "▁लखन": 4284,
      "▁लेता": 4285,
      "▁आँ": 4286,
      "ियस": 4287,
      "णियों": 4288,
      "माने": 4289,
      "▁अभिनय": 4290,
      "▁वही": 4291,
      "▁क्षेत्रफल": 4292,
      "▁पश्चात्": 4293,
      "▁विचारों": 4294,
      "▁तेज": 4295,
      "▁तार": 4296,
      "▁सलाह": 4297,
      "▁प्रो": 4298,
      "त्प": 4299,
      "▁2012": 4300,
      "ूहिक": 4301,
      "▁आये": 4302,
      "ज़न": 4303,
      "▁मौसम": 4304,
      "▁प्रे": 4305,
      "▁खत": 4306,
      "▁अभि": 4307,
      "ेंद्र": 4308,
      "ंत्रिक": 4309,
      "▁प्रायः": 4310,
      "▁th": 4311,
      "▁प्रशासनिक": 4312,
      "▁सम्मेल": 4313,
      "▁गहरा": 4314,
      "▁पार्क": 4315,
      "▁बिज": 4316,
      "ोली": 4317,
      "▁सामूहिक": 4318,
      "▁चुकी": 4319,
      "ak": 4320,
      "▁मुद्रा": 4321,
      "▁चढ़": 4322,
      "भूमि": 4323,
      "कान": 4324,
      "▁अंतरिक्ष": 4325,
      "▁सुरक्षित": 4326,
      ".9": 4327,
      "▁ओल": 4328,
      "44": 4329,
      "▁मंग": 4330,
      "▁189": 4331,
      "गाह": 4332,
      "▁कना": 4333,
      "ख्य": 4334,
      "▁जैव": 4335,
      "ताप": 4336,
      "▁सोव": 4337,
      "▁गोप": 4338,
      "▁साब": 4339,
      "▁प्रारम्भ": 4340,
      "▁व्यक्तिगत": 4341,
      "ंदी": 4342,
      "ें।": 4343,
      "थान": 4344,
      "▁ग्रहण": 4345,
      "▁फिल्मों": 4346,
      "▁परीक्षा": 4347,
      "▁टेस्ट": 4348,
      "र्ल": 4349,
      "▁उनसे": 4350,
      "वां": 4351,
      "शाली": 4352,
      "▁O": 4353,
      "▁उम्म": 4354,
      "मैन": 4355,
      "▁पद्म": 4356,
      "▁हुआ।\n": 4357,
      "▁लिखे": 4358,
      "▁प्रतिनिधित्व": 4359,
      "ंबी": 4360,
      "त्मा": 4361,
      "▁शाय": 4362,
      "▁संपर्क": 4363,
      "▁सफ": 4364,
      "▁हान": 4365,
      "क्य": 4366,
      "्रेड": 4367,
      "▁सॉफ्ट": 4368,
      "वाब": 4369,
      "म्बेडकर": 4370,
      "ो,": 4371,
      "▁मस्": 4372,
      "▁ज्व": 4373,
      "▁दिये": 4374,
      "▁मछ": 4375,
      "िरी": 4376,
      "▁जाएगा": 4377,
      "लिक": 4378,
      "▁रिली": 4379,
      "ल्फ": 4380,
      "▁विरुद्ध": 4381,
      "▁विवरण": 4382,
      "तार": 4383,
      "▁लखनऊ": 4384,
      "▁इलाहा": 4385,
      "▁दिया,": 4386,
      "▁गढ़वाल": 4387,
      "पत": 4388,
      "▁तृ": 4389,
      "▁पत्थर": 4390,
      "भूत": 4391,
      "वुड": 4392,
      "्वे": 4393,
      "मय": 4394,
      "um": 4395,
      "▁विद्या": 4396,
      "ाउन": 4397,
      "मीर": 4398,
      "▁शारी": 4399,
      "▁आदर्श": 4400,
      "▁सृ": 4401,
      "ू,": 4402,
      "घर": 4403,
      "ें,": 4404,
      "▁वृक्ष": 4405,
      "▁उन्न": 4406,
      "▁महाराष्ट्र": 4407,
      "yle": 4408,
      "ढ़ी": 4409,
      "बन्ध": 4410,
      "▁विषयों": 4411,
      "▁संरक्षण": 4412,
      "धों": 4413,
      "कृष्ण": 4414,
      "जाति": 4415,
      "▁खरीद": 4416,
      "▁अम्ल": 4417,
      "राबाद": 4418,
      "▁जटिल": 4419,
      "▁विद्वानों": 4420,
      "हरे": 4421,
      "▁खी": 4422,
      "▁इंजन": 4423,
      "\"\n": 4424,
      "्शन": 4425,
      "▁तकनीक": 4426,
      "▁सिक्": 4427,
      "▁पशु": 4428,
      "▁स्थिर": 4429,
      "▁नवम्बर": 4430,
      "यम": 4431,
      "▁क्रमश": 4432,
      "▁।\n": 4433,
      "▁g": 4434,
      "▁सोवियत": 4435,
      "र्की": 4436,
      "▁पहाड़ी": 4437,
      "▁समस्त": 4438,
      "▁इकाई": 4439,
      "▁छूट": 4440,
      "▁अर्थव्यवस्था": 4441,
      "्यास": 4442,
      "▁तथ": 4443,
      "▁सामना": 4444,
      "▁प्रशिक्षण": 4445,
      "गन": 4446,
      "▁अपराध": 4447,
      "▁वित्तीय": 4448,
      "▁समारोह": 4449,
      "▁काली": 4450,
      "▁दार्": 4451,
      "वट": 4452,
      "▁काउ": 4453,
      "सान": 4454,
      "▁दबाव": 4455,
      "▁आकाश": 4456,
      "्रोजन": 4457,
      "लब": 4458,
      "▁मुख्यतः": 4459,
      "रा,": 4460,
      "रीब": 4461,
      "िवेश": 4462,
      "पूर्वक": 4463,
      "▁परिप": 4464,
      "▁आचार्य": 4465,
      "खिम": 4466,
      "▁गतिविध": 4467,
      "▁The": 4468,
      "15": 4469,
      "▁1990": 4470,
      "▁जिम्म": 4471,
      "▁किले": 4472,
      "13": 4473,
      "▁सीधे": 4474,
      "▁2013": 4475,
      "▁स्वर": 4476,
      "▁आंत": 4477,
      "ंदु": 4478,
      "▁In": 4479,
      "▁चलते": 4480,
      "ायी": 4481,
      "▁गाँधी": 4482,
      "▁दृष्टिकोण": 4483,
      "-भ": 4484,
      "▁कृत": 4485,
      "▁मिलने": 4486,
      "▁सिस्टम": 4487,
      "▁लड़ाई": 4488,
      "क्षक": 4489,
      "चारिक": 4490,
      "▁हृद": 4491,
      "▁पटना": 4492,
      "▁उचित": 4493,
      "▁राजवंश": 4494,
      "▁मशीन": 4495,
      "▁नार": 4496,
      "▁हट": 4497,
      "▁तप": 4498,
      "▁जांच": 4499,
      "▁नाइट": 4500,
      "▁फ़्र": 4501,
      "ांतिक": 4502,
      "▁शिकार": 4503,
      "वायु": 4504,
      "▁शारीरिक": 4505,
      "▁सिख": 4506,
      "▁रोमन": 4507,
      "▁चोट": 4508,
      "▁तक,": 4509,
      "स्पति": 4510,
      "▁रचित": 4511,
      "सेना": 4512,
      "ंपरिक": 4513,
      "▁साथ,": 4514,
      "▁जुड़ा": 4515,
      "▁आयर": 4516,
      "▁घु": 4517,
      "▁प्ल": 4518,
      "▁बेहतर": 4519,
      "▁गठ": 4520,
      "▁ग्रामी": 4521,
      "▁तत्कालीन": 4522,
      "नाइटेड": 4523,
      "शे": 4524,
      "कर,": 4525,
      "▁अट": 4526,
      "▁उत्पत्ति": 4527,
      "▁उपन": 4528,
      "▁185": 4529,
      "▁कार्बन": 4530,
      "म्परा": 4531,
      "▁कब्": 4532,
      "ृत्त": 4533,
      "▁देखते": 4534,
      "▁पुनर्": 4535,
      "▁तेजी": 4536,
      ".7": 4537,
      "▁1,": 4538,
      "▁प्रतीक": 4539,
      "▁सर्वोच्च": 4540,
      "▁है:\n": 4541,
      "▁दर्शाता": 4542,
      "▁अलावा,": 4543,
      "▁आरोप": 4544,
      "▁ग्राह": 4545,
      "ाटा": 4546,
      "न्व": 4547,
      "▁त्व": 4548,
      "मारी": 4549,
      "▁मौत": 4550,
      "▁दान": 4551,
      "ासन": 4552,
      "▁जमा": 4553,
      "ेटा": 4554,
      "थि": 4555,
      "▁इंजीनियर": 4556,
      "▁तुम": 4557,
      "▁निवेश": 4558,
      "▁जिसमे": 4559,
      "▁मांस": 4560,
      "▁{\\": 4561,
      "▁लक": 4562,
      "▁सके।": 4563,
      "मेर": 4564,
      "▁समर्प": 4565,
      "जिद": 4566,
      "नान": 4567,
      "ॉर्क": 4568,
      "एफ": 4569,
      "कूल": 4570,
      "▁पदार्थों": 4571,
      "ंडे": 4572,
      "▁हथ": 4573,
      "▁सभ्यता": 4574,
      "अर": 4575,
      "▁“": 4576,
      "▁इच्छा": 4577,
      "▁संसा": 4578,
      "ुन": 4579,
      "▁\"स": 4580,
      "▁मिस्र": 4581,
      "बॉल": 4582,
      "▁प्ला": 4583,
      "▁गेंद": 4584,
      "▁re": 4585,
      "▁शिला": 4586,
      "▁हस्ता": 4587,
      "▁ज्यादातर": 4588,
      "पित": 4589,
      "ंगी": 4590,
      "▁ढंग": 4591,
      "▁उपयुक्त": 4592,
      "▁एकल": 4593,
      "▁दोष": 4594,
      "ce": 4595,
      "ूं": 4596,
      "▁जोखिम": 4597,
      "▁मैक": 4598,
      "▁पारंपरिक": 4599,
      "ौल": 4600,
      "त,": 4601,
      "▁बैंड": 4602,
      "वेल": 4603,
      "▁→": 4604,
      "▁दावा": 4605,
      "▁द्रव्य": 4606,
      "▁जेल": 4607,
      "है": 4608,
      "▁सुख": 4609,
      "▁रज": 4610,
      "▁प्रशासन": 4611,
      "▁सॉफ्टवेयर": 4612,
      "▁माने": 4613,
      "लेट": 4614,
      "▁2003": 4615,
      "ोबाइल": 4616,
      "▁पाने": 4617,
      "▁चार्": 4618,
      "▁नियमित": 4619,
      "▁केन्द": 4620,
      "ँकि": 4621,
      "▁प्रगति": 4622,
      "स्त्र": 4623,
      "▁r": 4624,
      "▁मीडिया": 4625,
      "▁छात्र": 4626,
      "27": 4627,
      "▁टाइम": 4628,
      "▁दिया।\n": 4629,
      "▁खाद्य": 4630,
      "वाला": 4631,
      "ौज": 4632,
      "▁हैद": 4633,
      "▁घरेल": 4634,
      "▁कोलका": 4635,
      "▁जीवित": 4636,
      "मै": 4637,
      "▁लगाने": 4638,
      "ौली": 4639,
      "▁रखता": 4640,
      "▁अख": 4641,
      "▁188": 4642,
      "▁प्रसाद": 4643,
      "og": 4644,
      "▁एफ": 4645,
      "▁गणराज्य": 4646,
      "्स,": 4647,
      "घाट": 4648,
      "▁उल": 4649,
      "▁मस्जिद": 4650,
      "▁नही": 4651,
      "▁बहा": 4652,
      "▁उर्द": 4653,
      "वेदन": 4654,
      "▁बंध": 4655,
      "▁चट्ट": 4656,
      "▁है.": 4657,
      "▁त्या": 4658,
      "▁यंत्र": 4659,
      "▁अभिनेता": 4660,
      "क्ल": 4661,
      "▁पत्त": 4662,
      "▁शीत": 4663,
      "▁मानना": 4664,
      "िल्प": 4665,
      "ादक": 4666,
      "▁संचार": 4667,
      "▁महाद्वीप": 4668,
      "▁फिल": 4669,
      "▁स्मार": 4670,
      "ष्कार": 4671,
      "▁आन्ध्रप्रदेश": 4672,
      "ोधन": 4673,
      "▁जाल": 4674,
      "ात्": 4675,
      "भाषित": 4676,
      "युद्ध": 4677,
      "▁परम्परा": 4678,
      "▁विभाजन": 4679,
      "▁शास्त": 4680,
      "▁भेजा": 4681,
      "▁ब्राह्मण": 4682,
      "▁सत्र": 4683,
      "▁प्रत्यक्ष": 4684,
      "▁पार्": 4685,
      "ह्न": 4686,
      "▁2002": 4687,
      "ण्ट": 4688,
      "▁सौर": 4689,
      "कर्ताओं": 4690,
      "▁प्रेरित": 4691,
      "▁केंद": 4692,
      "▁एकमात्र": 4693,
      "तया": 4694,
      "▁बोर्ड": 4695,
      "▁फैला": 4696,
      "▁सम्मेलन": 4697,
      "▁मंगल": 4698,
      "▁कुश": 4699,
      "▁प्रोग्राम": 4700,
      "▁काट": 4701,
      "हारी": 4702,
      "▁स्वर्ण": 4703,
      "▁लंबे": 4704,
      "▁हमें": 4705,
      "▁कहान": 4706,
      "▁हल्": 4707,
      "▁दिखाया": 4708,
      "▁उम्मीद": 4709,
      "▁समझा": 4710,
      "▁उनको": 4711,
      "-र": 4712,
      "▁शायद": 4713,
      "▁+": 4714,
      "▁केरल": 4715,
      "दु": 4716,
      "िक,": 4717,
      "ॉय": 4718,
      "▁अनुया": 4719,
      "▁घटनाओं": 4720,
      "स्तिष्क": 4721,
      "▁हजार": 4722,
      "दू": 4723,
      "ध्या": 4724,
      "▁विख्यात": 4725,
      "▁समुद्री": 4726,
      "डो": 4727,
      "▁स्पेन": 4728,
      "▁मनोर": 4729,
      "जित": 4730,
      "▁अभिव": 4731,
      "▁परिवर्तित": 4732,
      "▁इमारत": 4733,
      "▁विलय": 4734,
      "▁राशि": 4735,
      "▁वालों": 4736,
      "▁लंबी": 4737,
      "▁तीसरे": 4738,
      "शिप": 4739,
      "ाइप": 4740,
      "णिज": 4741,
      "▁ग्रामीण": 4742,
      "▁मां": 4743,
      "▁कहलाता": 4744,
      "▁आख": 4745,
      "गुप्त": 4746,
      "▁पुरानी": 4747,
      "ch": 4748,
      "▁तिब्ब": 4749,
      "▁कहना": 4750,
      "▁वर्णित": 4751,
      "ैव": 4752,
      "▁चलने": 4753,
      "▁विवे": 4754,
      "▁चर्चा": 4755,
      "ow": 4756,
      "▁सम्पूर्ण": 4757,
      "▁लेखन": 4758,
      "▁पेर": 4759,
      "▁आर्य": 4760,
      "▁is": 4761,
      "▁आम्बेडकर": 4762,
      "बर्ट": 4763,
      "▁लघु": 4764,
      "▁संक्रमण": 4765,
      "▁समूहों": 4766,
      "▁भक्त": 4767,
      "-उ": 4768,
      "▁सन्दर्भ": 4769,
      "▁चुना": 4770,
      "यत": 4771,
      "ियार": 4772,
      "▁ऑन": 4773,
      "▁पत": 4774,
      "▁संप्र": 4775,
      "ोधित": 4776,
      "▁चरित्र": 4777,
      "▁मेर": 4778,
      "▁हमला": 4779,
      "फ्": 4780,
      "हल": 4781,
      "▁संभवत": 4782,
      "▁केन्द्रीय": 4783,
      "▁रखी": 4784,
      "▁सम्बंधित": 4785,
      "▁उपभ": 4786,
      "▁तकनीकी": 4787,
      "▁2015": 4788,
      "शय": 4789,
      "▁जलवायु": 4790,
      "▁मूर्ति": 4791,
      "णिज्य": 4792,
      "▁अत": 4793,
      "▁सुपर": 4794,
      "▁फरवरी": 4795,
      ".एस": 4796,
      "▁गी": 4797,
      "▁उपग्रह": 4798,
      "▁अर्थात": 4799,
      "▁माइक्र": 4800,
      "▁प्लेट": 4801,
      "पू": 4802,
      "ोत्साह": 4803,
      "पट": 4804,
      "▁जीता": 4805,
      "▁सप्ताह": 4806,
      "▁31": 4807,
      "▁वैदिक": 4808,
      "▁सर्वप्र": 4809,
      "हवीं": 4810,
      "em": 4811,
      "लाइन": 4812,
      "▁गूगल": 4813,
      "कारात्मक": 4814,
      "▁चतु": 4815,
      "▁अंग्रेजों": 4816,
      "▁सर्वे": 4817,
      "ंव": 4818,
      "ेंच": 4819,
      "नैतिक": 4820,
      "िकाओं": 4821,
      "▁टीवी": 4822,
      "▁81": 4823,
      "▁नियंत्रित": 4824,
      "▁सिटी": 4825,
      "पद": 4826,
      "▁कराया": 4827,
      "चारी": 4828,
      "dis": 4829,
      "▁आंक": 4830,
      "ल्ला": 4831,
      "▁सितंबर": 4832,
      "ियों,": 4833,
      "▁60": 4834,
      "▁वीडियो": 4835,
      "▁उदय": 4836,
      "▁हालाँकि": 4837,
      "▁मतलब": 4838,
      "▁कठिन": 4839,
      "▁चयन": 4840,
      "उट": 4841,
      "म्बी": 4842,
      "णिक": 4843,
      "्षिक": 4844,
      "▁मेट्रो": 4845,
      "-ग": 4846,
      "▁बाहरी": 4847,
      "60": 4848,
      "लोक": 4849,
      "▁रोज": 4850,
      "▁प्रभावी": 4851,
      "कला": 4852,
      "▁कनाडा": 4853,
      "▁पुराना": 4854,
      "▁प्रवाह": 4855,
      "▁संपूर्ण": 4856,
      "▁कोशिकाओं": 4857,
      "▁चा": 4858,
      "▁संधि": 4859,
      "िलों": 4860,
      "▁घरेलू": 4861,
      "▁58": 4862,
      "▁गुजरात": 4863,
      "▁भा": 4864,
      "ाये": 4865,
      "▁80": 4866,
      "माला": 4867,
      "एच": 4868,
      "▁परिभाषा": 4869,
      "▁पुण": 4870,
      "▁सेवाओं": 4871,
      "...": 4872,
      "शनिक": 4873,
      "▁महाभारत": 4874,
      "▁निर्माता": 4875,
      "▁लागत": 4876,
      "दूर": 4877,
      "▁घन": 4878,
      "▁भौतिकी": 4879,
      "▁तरंग": 4880,
      "▁:\n": 4881,
      "▁संग्रहालय": 4882,
      "▁मात": 4883,
      "हीन": 4884,
      "▁नवीन": 4885,
      "पचारिक": 4886,
      "▁किर": 4887,
      "▁घाट": 4888,
      "▁संचालन": 4889,
      "▁उपाधि": 4890,
      "िशाली": 4891,
      "▁पकड़": 4892,
      "ोज़": 4893,
      "▁आवि": 4894,
      "▁आन्द": 4895,
      "▁अमरीका": 4896,
      "▁जुड़": 4897,
      "▁अनुकूल": 4898,
      "▁ब्लैक": 4899,
      "▁औष": 4900,
      "▁आनंद": 4901,
      "सायिक": 4902,
      "▁कारणों": 4903,
      "▁कैसे": 4904,
      "▁गौर": 4905,
      "संग": 4906,
      "▁खूब": 4907,
      "▁पैमाने": 4908,
      "▁कैथ": 4909,
      "▁त्रि": 4910,
      "ल्य": 4911,
      "▁वाणिज्य": 4912,
      "▁केंद्रीय": 4913,
      "▁पठ": 4914,
      "▁हृदय": 4915,
      "▁शेयर": 4916,
      "▁प्रतिमा": 4917,
      "क्क": 4918,
      "▁वार्षिक": 4919,
      "▁आतंक": 4920,
      "▁नील": 4921,
      "▁विलियम": 4922,
      "▁57": 4923,
      "धारणा": 4924,
      "▁लगे।": 4925,
      "पूर्ति": 4926,
      "▁ऊंचाई": 4927,
      "style": 4928,
      "ुस्त": 4929,
      "▁किताब": 4930,
      "क्षर": 4931,
      "कृष्ट": 4932,
      "▁छि": 4933,
      "्यूट": 4934,
      "ज्ज": 4935,
      "▁मानकर": 4936,
      "▁परिभाषित": 4937,
      "▁अरबी": 4938,
      "▁नये": 4939,
      "▁35": 4940,
      "कोट": 4941,
      "play": 4942,
      "▁की।\n": 4943,
      "▁'अ": 4944,
      "▁महत्त्वपूर्ण": 4945,
      "▁खेलों": 4946,
      "▁फे": 4947,
      "▁पति": 4948,
      "▁पोल": 4949,
      "▁अना": 4950,
      "▁डाला": 4951,
      "▁1980": 4952,
      "ाराण": 4953,
      "▁इलाहाबाद": 4954,
      "दर्शन": 4955,
      "िश्चित": 4956,
      "ासी": 4957,
      "▁क्षेत्रीय": 4958,
      "▁स्थायी": 4959,
      "▁पौधों": 4960,
      "न्त्री": 4961,
      "▁उपस्थिति": 4962,
      "वैज्ञानिक": 4963,
      "▁कबी": 4964,
      "▁दार्शनिक": 4965,
      "▁अच्छे": 4966,
      "ष्टा": 4967,
      "क्का": 4968,
      "▁अड्डा": 4969,
      "ड़िया": 4970,
      "्ठ": 4971,
      "-च": 4972,
      "▁फैस": 4973,
      "▁परिसर": 4974,
      "ूक": 4975,
      "श्विक": 4976,
      "▁न्यूय": 4977,
      "▁वेस्ट": 4978,
      "▁देवता": 4979,
      "▁उपरो": 4980,
      "▁बनाये": 4981,
      "▁उपरोक्त": 4982,
      "▁कार्ड": 4983,
      "▁दौरान,": 4984,
      "▁मस्तिष्क": 4985,
      "▁अनिवार": 4986,
      "▁ज़्या": 4987,
      "▁हिमालय": 4988,
      "▁बढ": 4989,
      "िंगटन": 4990,
      "▁उठा": 4991,
      "th": 4992,
      "यक": 4993,
      "▁जम्म": 4994,
      "ंता": 4995,
      "▁काशी": 4996,
      "▁हैदराबाद": 4997,
      "▁राजनैतिक": 4998,
      "▁आत्मा": 4999,
      "▁पोर्ट": 5000,
      "ानिस्तान": 5001,
      "क्षिक": 5002,
      "रत": 5003,
      "▁सोल": 5004,
      "▁कर्ना": 5005,
      "▁प्रोत्साह": 5006,
      "▁शक्तिशाली": 5007,
      "-व": 5008,
      "▁अनुप्र": 5009,
      "भुत": 5010,
      "▁सोम": 5011,
      "▁शाही": 5012,
      "▁ध्वनि": 5013,
      "ोनी": 5014,
      "▁2016": 5015,
      "▁तत्वों": 5016,
      "▁कक्षा": 5017,
      "▁सिनेमा": 5018,
      "▁कल्पना": 5019,
      "▁for": 5020,
      "हान": 5021,
      "व,": 5022,
      "▁नेहर": 5023,
      "▁भुगत": 5024,
      "▁नहीं,": 5025,
      "▁स्टार": 5026,
      "▁समस्याओं": 5027,
      "▁पाठ्य": 5028,
      "▁लगा।": 5029,
      "▁त्याग": 5030,
      "इया": 5031,
      "हे": 5032,
      "▁महासागर": 5033,
      "▁पर्यटन": 5034,
      "ाराणसी": 5035,
      "▁तुर्की": 5036,
      "ामा": 5037,
      "रु": 5038,
      "▁मोबाइल": 5039,
      "रता": 5040,
      "▁खेती": 5041,
      "▁उर्दू": 5042,
      "▁है\n": 5043,
      "▁साँचा:": 5044,
      "ra": 5045,
      "▁धारण": 5046,
      "तन्त्र": 5047,
      "लिंग": 5048,
      "▁अवधारणा": 5049,
      "▁*": 5050,
      "▁बढ़ती": 5051,
      "ँग": 5052,
      "▁हित": 5053,
      "▁रूसी": 5054,
      "▁आयोग": 5055,
      "▁कलाकार": 5056,
      "▁.\n": 5057,
      "▁J": 5058,
      "स्म": 5059,
      "▁मानसिक": 5060,
      "▁पड़ा।": 5061,
      "धिकारी": 5062,
      "गढ": 5063,
      "▁तुर": 5064,
      "ेंसी": 5065,
      "▁दाय": 5066,
      "display": 5067,
      "▁समर्पित": 5068,
      "िस्प": 5069,
      "▁अंततः": 5070,
      "क्व": 5071,
      "▁पड़ती": 5072,
      "िरण": 5073,
      "▁पात्र": 5074,
      "▁संदेश": 5075,
      "लाम": 5076,
      "▁ग्रंथों": 5077,
      "▁सितम्बर": 5078,
      "▁{\\display": 5079,
      "▁{\\displaystyle": 5080,
      "दपुर": 5081,
      "वरों": 5082,
      "ेक्ट": 5083,
      "ब्ल्यू": 5084,
      "▁प्राप्ति": 5085,
      "▁व्": 5086,
      "▁अधिकारियों": 5087,
      "▁प्रश्न": 5088,
      ".45": 5089,
      "▁पाद": 5090,
      "दों": 5091,
      "▁ध्रु": 5092,
      "▁प्रतीत": 5093,
      "▁कोलकाता": 5094,
      "▁सर्वप्रथम": 5095,
      "परी": 5096,
      "▁विक्र": 5097,
      "▁ज़र": 5098,
      "▁अस्थ": 5099,
      "▁जोर": 5100,
      "▁आसानी": 5101,
      "▁शुक्र": 5102,
      "▁वॉ": 5103,
      "करी": 5104,
      "▁कित": 5105,
      "▁क्षति": 5106,
      "▁जीवों": 5107,
      "▁राह": 5108,
      "ंदा": 5109,
      "▁प्रि": 5110,
      "▁रोड": 5111,
      "▁जनरल": 5112,
      "▁अकबर": 5113,
      "25": 5114,
      "▁डेटा": 5115,
      "▁साधन": 5116,
      "▁गतिविधियों": 5117,
      "▁जूल": 5118,
      "▁ज़िले": 5119,
      "▁व्यावसायिक": 5120,
      "▁रन": 5121,
      "▁जाकर": 5122,
      "▁प्रथा": 5123,
      "▁अभिव्य": 5124,
      "यू": 5125,
      "▁हटा": 5126,
      "▁लेन": 5127,
      "▁यज्ञ": 5128,
      "त्तीस": 5129,
      "▁फलस्वरूप": 5130,
      "▁आंतरिक": 5131,
      "▁घूम": 5132,
      "एक": 5133,
      "ौन": 5134,
      "▁187": 5135,
      "▁कंपनियों": 5136,
      "▁कण": 5137,
      "▁क्यू": 5138,
      "▁है-": 5139,
      "ायत": 5140,
      "▁रवि": 5141,
      "▁जम्मू": 5142,
      "▁अन्दर": 5143,
      "▁तृतीय": 5144,
      "▁इंद": 5145,
      "िपी": 5146,
      "▁निगम": 5147,
      "▁आपको": 5148,
      "▁छोड़कर": 5149,
      "▁पसंद": 5150,
      "▁नॉ": 5151,
      "▁रिया": 5152,
      "्यूर": 5153,
      "▁विकल्प": 5154,
      "▁)": 5155,
      "▁पृथ्वीराज": 5156,
      "▁लकड़ी": 5157,
      "▁विशेषज्ञ": 5158,
      "▁जिनकी": 5159,
      "36": 5160,
      "▁दूध": 5161,
      "काब": 5162,
      "▁समृ": 5163,
      "▁बीमारी": 5164,
      "▁कैलेंडर": 5165,
      "▁ग्रीन": 5166,
      "▁78.0": 5167,
      "▁आकर": 5168,
      "▁तय": 5169,
      "िक्र": 5170,
      "▁हैं;": 5171,
      "▁मुगल": 5172,
      "ुण": 5173,
      "▁भोज": 5174,
      "▁बिक्री": 5175,
      "ोत्तर": 5176,
      "्याण": 5177,
      "लाब": 5178,
      "▁दर्ज": 5179,
      "▁लिंग": 5180,
      "▁प्रताप": 5181,
      "▁सुझ": 5182,
      "▁लाइन": 5183,
      "38": 5184,
      "ॉनिक": 5185,
      "▁एव": 5186,
      "▁तारा": 5187,
      "▁नदियों": 5188,
      "त्रि": 5189,
      "ांकन": 5190,
      "गी।": 5191,
      "▁मसी": 5192,
      "▁तभी": 5193,
      "▁अनिवार्य": 5194,
      "सूस": 5195,
      "▁नियमों": 5196,
      "▁रोगी": 5197,
      "▁अल्म": 5198,
      "▁मजबूत": 5199,
      "कोश": 5200,
      "राय": 5201,
      "थन": 5202,
      "▁गवर्": 5203,
      "▁कोय": 5204,
      "▁प्यार": 5205,
      "ौती": 5206,
      "▁जमीन": 5207,
      "▁साबित": 5208,
      "▁सूर": 5209,
      "िटल": 5210,
      "▁वैश्विक": 5211,
      "दल": 5212,
      "▁ar": 5213,
      "ं,": 5214,
      "इल": 5215,
      "िकीय": 5216,
      "▁एकत्र": 5217,
      "▁देकर": 5218,
      "पुरी": 5219,
      "ांतर": 5220,
      "क्शन": 5221,
      "या।": 5222,
      "न्दु": 5223,
      "▁दिसंबर": 5224,
      "▁पॉल": 5225,
      "▁ताल": 5226,
      "▁एल्बम": 5227,
      "▁सुना": 5228,
      "▁an": 5229,
      "▁मुक": 5230,
      "▁संकल": 5231,
      "▁पॉ": 5232,
      "▁तीनों": 5233,
      "▁मानी": 5234,
      "▁राइ": 5235,
      "▁जेम्स": 5236,
      "ers": 5237,
      "▁क्ला": 5238,
      "▁राजप": 5239,
      "▁जातियों": 5240,
      "▁नेप": 5241,
      "िथ": 5242,
      "वत्ता": 5243,
      "▁सिंध": 5244,
      "धीश": 5245,
      "▁श्रद्ध": 5246,
      "▁अभाव": 5247,
      "दाबाद": 5248,
      "▁बिंदु": 5249,
      "▁संपत्ति": 5250,
      "▁प्रतिप": 5251,
      "}}": 5252,
      "▁अज": 5253,
      "तीत": 5254,
      "पेक्ष": 5255,
      "▁बुल": 5256,
      "पुरा": 5257,
      "▁बनता": 5258,
      "ंगे": 5259,
      "▁बिजली": 5260,
      "▁जरूरत": 5261,
      "जुन": 5262,
      "▁अपेक्षाकृत": 5263,
      "▁कानपुर": 5264,
      "▁ऊँचाई": 5265,
      "ोड़े": 5266,
      "सेन": 5267,
      "▁शृंखला": 5268,
      "▁चैनल": 5269,
      "▁मंडल": 5270,
      "▁लिखित": 5271,
      "▁भुगतान": 5272,
      "▁राजकुम": 5273,
      "दुर": 5274,
      "ादित": 5275,
      "▁लल": 5276,
      "est": 5277,
      "▁जॉर्ज": 5278,
      "▁यहीं": 5279,
      "▁निभा": 5280,
      "▁दिवस": 5281,
      "▁छत्तीस": 5282,
      "▁उपयोगी": 5283,
      "▁बी.": 5284,
      "ांतरित": 5285,
      "गोलिक": 5286,
      "▁ठोस": 5287,
      "पल": 5288,
      "▁प्री": 5289,
      "▁राजाओं": 5290,
      "यह": 5291,
      "िखर": 5292,
      "▁अग्": 5293,
      "▁प्रतिरोध": 5294,
      "▁तीसरी": 5295,
      "घ्र": 5296,
      "▁आन्दोलन": 5297,
      "आत": 5298,
      "ई,": 5299,
      "ैश": 5300,
      "तियाँ": 5301,
      "▁इतनी": 5302,
      "▁चूंकि": 5303,
      "▁शीर्षक": 5304,
      "▁काला": 5305,
      "PM": 5306,
      "ंडित": 5307,
      "▁1999": 5308,
      "ct": 5309,
      "▁पड़े": 5310,
      "▁शेर": 5311,
      "दो": 5312,
      "▁वाराणसी": 5313,
      "▁1947": 5314,
      "▁कक्ष": 5315,
      "▁विरोधी": 5316,
      "▁बनाते": 5317,
      "▁नैतिक": 5318,
      "▁गुफा": 5319,
      "▁ऋण": 5320,
      "▁सदा": 5321,
      "▁अके": 5322,
      "▁साहित्यिक": 5323,
      "▁27°": 5324,
      "ंक्शन": 5325,
      "▁संस्कार": 5326,
      "▁मक": 5327,
      "▁किरण": 5328,
      "▁अफ़्री": 5329,
      "▁पैर": 5330,
      "▁द्रव": 5331,
      "▁पुरुषों": 5332,
      "वीर": 5333,
      "▁बंदर": 5334,
      "ेह": 5335,
      "▁एक्सप": 5336,
      "▁सैनिकों": 5337,
      "▁उद्यान": 5338,
      "▁सीता": 5339,
      "▁कोट": 5340,
      "शु": 5341,
      "▁बुद्धि": 5342,
      "▁आकर्षित": 5343,
      "ानुसार": 5344,
      "▁निरंतर": 5345,
      "op": 5346,
      "▁उड़ान": 5347,
      "▁कर्नाटक": 5348,
      "भि": 5349,
      "▁अशोक": 5350,
      "▁महाम": 5351,
      "her": 5352,
      "▁मसीह": 5353,
      "12": 5354,
      "▁नुक": 5355,
      "▁मंज": 5356,
      "▁अय": 5357,
      "▁मिश्रण": 5358,
      "▁नेशनल": 5359,
      "ोक्ता": 5360,
      "▁मस": 5361,
      "▁पराज": 5362,
      "od": 5363,
      "▁बाज़": 5364,
      "▁शिश": 5365,
      "▁कदम": 5366,
      "▁राजमार्ग": 5367,
      "सिंग": 5368,
      "▁प्रसारण": 5369,
      "▁आनु": 5370,
      "▁पेड़": 5371,
      "▁लंबाई": 5372,
      "▁स्ट्र": 5373,
      "चरण": 5374,
      "िप्त": 5375,
      "▁भौगोलिक": 5376,
      "▁व्यास": 5377,
      "▁टर्म": 5378,
      "▁धर": 5379,
      "▁यूनाइटेड": 5380,
      "▁छात्रों": 5381,
      "नाश": 5382,
      "▁अनुपात": 5383,
      "▁चली": 5384,
      "▁खनि": 5385,
      "▁टुक": 5386,
      "▁लाया": 5387,
      "ly": 5388,
      "▁सजा": 5389,
      "▁ईरान": 5390,
      "▁मनाया": 5391,
      "▁शर्मा": 5392,
      "▁सोच": 5393,
      "ैंक": 5394,
      "▁सौंप": 5395,
      "▁एप": 5396,
      "बह": 5397,
      "▁गुणवत्ता": 5398,
      "▁गिरा": 5399,
      "मो": 5400,
      "▁निभाई": 5401,
      "▁कारण,": 5402,
      "-पश्च": 5403,
      "ार,": 5404,
      "▁खाने": 5405,
      "▁दीर्घ": 5406,
      "▁निकाले": 5407,
      "तरी": 5408,
      "दृ": 5409,
      "▁गुणों": 5410,
      "राई": 5411,
      "▁लोह": 5412,
      "▁बदलाव": 5413,
      "qu": 5414,
      "▁गर्भ": 5415,
      "▁हुये": 5416,
      "िस्तानी": 5417,
      "नेस": 5418,
      "▁उपकरणों": 5419,
      "▁बेच": 5420,
      "▁बुला": 5421,
      "▁करवाया": 5422,
      "िवर्स": 5423,
      "▁ऊपरी": 5424,
      "▁कठोर": 5425,
      "▁जौ": 5426,
      "र्जन": 5427,
      "▁डा": 5428,
      "▁1960": 5429,
      "▁होंगे": 5430,
      "▁खगोल": 5431,
      "वक": 5432,
      "▁हुई,": 5433,
      "▁बहुम": 5434,
      "▁मुरादा": 5435,
      "▁निच": 5436,
      "षद्": 5437,
      "▁हाथों": 5438,
      "▁नारायण": 5439,
      "▁मंत्रालय": 5440,
      "वंबर": 5441,
      "▁बसा": 5442,
      "धीरे": 5443,
      "▁काफ़ी": 5444,
      "▁मिलाकर": 5445,
      "▁अधिकतम": 5446,
      "▁मुसलमानों": 5447,
      "▁हूँ": 5448,
      "▁शंकर": 5449,
      "▁टेलीवि": 5450,
      "▁मुझे": 5451,
      "▁बनाता": 5452,
      "▁पारित": 5453,
      "ंशिक": 5454,
      "▁इटली": 5455,
      "▁ही,": 5456,
      "▁लेना": 5457,
      "निर्माण": 5458,
      "▁तोड़": 5459,
      "24": 5460,
      "▁नगला": 5461,
      "रीज": 5462,
      "▁मैन": 5463,
      "▁यूनानी": 5464,
      "▁टेल": 5465,
      "र्ती": 5466,
      "▁इंजीनियरिंग": 5467,
      "▁अर्ध": 5468,
      "▁सांस": 5469,
      "खों": 5470,
      "▁स्त्री": 5471,
      "फ़र्ड": 5472,
      "▁रूपों": 5473,
      "▁जानी": 5474,
      "▁दीवार": 5475,
      "▁k": 5476,
      "▁वर्गीकरण": 5477,
      "ोहन": 5478,
      "▁त्वचा": 5479,
      "▁परिस्थितियों": 5480,
      "▁70": 5481,
      "▁अश्व": 5482,
      "मुखी": 5483,
      "-धीरे": 5484,
      "▁जयपुर": 5485,
      "क्सीजन": 5486,
      "ियुग": 5487,
      "▁वैसे": 5488,
      "▁चेत": 5489,
      "▁1970": 5490,
      "▁पहाड़": 5491,
      "भेद": 5492,
      "▁मथ": 5493,
      "av": 5494,
      "▁दैनिक": 5495,
      "विड": 5496,
      "▁हेन": 5497,
      "\t\t": 5498,
      "▁समीप": 5499,
      "▁रखना": 5500,
      "▁st": 5501,
      ".टी": 5502,
      "▁प्रक्षेप": 5503,
      "▁चलती": 5504,
      "▁विधायक": 5505,
      "▁निदेश": 5506,
      "▁निवासी": 5507,
      "बान": 5508,
      "बु": 5509,
      "▁v": 5510,
      "▁नवंबर": 5511,
      "चु": 5512,
      "▁लाह": 5513,
      "▁हरिया": 5514,
      "▁छत्तीसगढ़": 5515,
      "ण्डर": 5516,
      "▁धीरे-धीरे": 5517,
      "▁$": 5518,
      "▁हाई": 5519,
      "▁सर्वेक्षण": 5520,
      "युग": 5521,
      "▁पहुंचती": 5522,
      "▁काले": 5523,
      "ावर": 5524,
      "▁विस्फ": 5525,
      "▁महाराजा": 5526,
      "उंड": 5527,
      "श्क": 5528,
      "काव्य": 5529,
      "▁'स": 5530,
      "▁स्नातक": 5531,
      "▁टूर्": 5532,
      "▁नहीं।": 5533,
      "▁परिवहन": 5534,
      "▁स्मृति": 5535,
      "महा": 5536,
      "▁वें": 5537,
      "-न": 5538,
      "▁मंच": 5539,
      "80": 5540,
      "▁अस्पताल": 5541,
      "डर": 5542,
      "▁अर्थशास्त्र": 5543,
      "▁देवताओं": 5544,
      "-फ": 5545,
      "▁बनाकर": 5546,
      "▁लाने": 5547,
      "▁पूछ": 5548,
      "▁गों": 5549,
      "्रीम": 5550,
      "▁नेहरू": 5551,
      "16": 5552,
      "▁दर्द": 5553,
      "िमा": 5554,
      "▁आगरा": 5555,
      "ोला": 5556,
      "▁सल": 5557,
      "▁हिल": 5558,
      "शाही": 5559,
      "संख्य": 5560,
      "▁गेम": 5561,
      "▁on": 5562,
      "▁बचपन": 5563,
      "▁सामान्यतः": 5564,
      "▁विद्वान": 5565,
      "▁संह": 5566,
      "॰मी": 5567,
      "अल": 5568,
      "▁रोकने": 5569,
      "पत्र": 5570,
      "▁हद": 5571,
      "▁कोरिया": 5572,
      "▁साहित्यकार": 5573,
      "नामेंट": 5574,
      "▁संगम": 5575,
      "ab": 5576,
      "मपुर": 5577,
      "▁अब्द": 5578,
      "▁वितरण": 5579,
      "ोलिक": 5580,
      "ुति": 5581,
      "▁जोड़ा": 5582,
      "िप्प": 5583,
      "▁वायुम": 5584,
      "▁सेल": 5585,
      "▁नुकसान": 5586,
      "▁1998": 5587,
      "रेली": 5588,
      "विधि": 5589,
      "▁बृह": 5590,
      "रांत": 5591,
      "▁वार्": 5592,
      "ड़ित": 5593,
      "▁रहस्य": 5594,
      "▁मेड": 5595,
      "▁शासकों": 5596,
      "▁गुजर": 5597,
      "▁अवि": 5598,
      "▁चाहता": 5599,
      "▁सिद्धांतों": 5600,
      "▁जंक्शन": 5601,
      "▁टूर्नामेंट": 5602,
      "33": 5603,
      "17": 5604,
      "▁लोकसभा": 5605,
      "▁गोरख": 5606,
      "▁इंच": 5607,
      "गां": 5608,
      "िणी": 5609,
      "▁ई0": 5610,
      "▁बाय": 5611,
      "▁चुने": 5612,
      "ेसर": 5613,
      "▁विज्ञापन": 5614,
      "▁भाषाएँ": 5615,
      "▁कल्याण": 5616,
      "▁हाइड्रोजन": 5617,
      "▁इम": 5618,
      "▁भीम": 5619,
      "ंकन": 5620,
      "▁न्यूयॉर्क": 5621,
      "▁स्टेट": 5622,
      "▁बाकी": 5623,
      "45": 5624,
      "▁हरि": 5625,
      "▁मुकाब": 5626,
      "▁कलियुग": 5627,
      "▁लव": 5628,
      "▁फु": 5629,
      "▁अवशेष": 5630,
      "व्या": 5631,
      "▁जहाज": 5632,
      "▁शीघ्र": 5633,
      "ri": 5634,
      "इयों": 5635,
      "▁औपचारिक": 5636,
      "च्छेद": 5637,
      "▁उत्कृष्ट": 5638,
      "बेर": 5639,
      "▁पुन:": 5640,
      "▁बत": 5641,
      "▁रिश": 5642,
      "▁अक्षर": 5643,
      "▁विस्फोट": 5644,
      "▁सुन्दर": 5645,
      "▁चिह्न": 5646,
      "▁इंडियन": 5647,
      "जू": 5648,
      "▁प्रोफ": 5649,
      "िस्क": 5650,
      "▁सोन": 5651,
      "ार्थी": 5652,
      "▁कले": 5653,
      "▁पट्टी": 5654,
      "▁रिलीज़": 5655,
      "▁समाधान": 5656,
      "▁पल": 5657,
      "िच": 5658,
      "▁जला": 5659,
      "▁महसूस": 5660,
      "▁अवस": 5661,
      "▁व्यक्तित्व": 5662,
      "▁खाड़ी": 5663,
      "▁प्रजातियों": 5664,
      "ांसीसी": 5665,
      "▁उपाय": 5666,
      "▁ब्रह्मा": 5667,
      "स्वी": 5668,
      "▁अमर": 5669,
      "लंका": 5670,
      "▁रखे": 5671,
      "▁वान": 5672,
      "▁कि,": 5673,
      "▁खेला": 5674,
      "′′N": 5675,
      "स्कर": 5676,
      "▁लिम": 5677,
      "▁फाइन": 5678,
      "▁सारी": 5679,
      "▁अधिकारों": 5680,
      "▁निश": 5681,
      "▁यात्री": 5682,
      "्रीट": 5683,
      "▁यानि": 5684,
      "▁वर्ल्ड": 5685,
      "▁अध्याय": 5686,
      "र्तग": 5687,
      "ान्ति": 5688,
      "47": 5689,
      "▁फर": 5690,
      "▁-\n": 5691,
      "ंख्य": 5692,
      "▁1950": 5693,
      "▁बढ़ने": 5694,
      "▁समीक्षा": 5695,
      "खर": 5696,
      "ावली": 5697,
      "▁भूक": 5698,
      "▁लिखने": 5699,
      "टो": 5700,
      "▁90": 5701,
      "▁\"क": 5702,
      "▁कैर": 5703,
      "▁टर्मिन": 5704,
      "▁नज": 5705,
      "▁समानता": 5706,
      "॰मी॰": 5707,
      "टिन": 5708,
      "▁विज": 5709,
      "▁अमृत": 5710,
      "नी,": 5711,
      "18": 5712,
      "शास्त": 5713,
      "▁हैं-": 5714,
      "▁be": 5715,
      "▁लगती": 5716,
      "▁प्रतिनिधि": 5717,
      "झा": 5718,
      "र्वेद": 5719,
      "-सं": 5720,
      "▁स्टी": 5721,
      "ंत्रिकी": 5722,
      "▁पत्रकार": 5723,
      "▁सचिव": 5724,
      "▁बोध": 5725,
      "लेस": 5726,
      "▁अनुप": 5727,
      "▁हस्ताक्षर": 5728,
      "▁मेरे": 5729,
      "▁भक्ति": 5730,
      "▁आहार": 5731,
      "▁वय": 5732,
      "▁चन्द": 5733,
      "▁फ़रवरी": 5734,
      "लीवुड": 5735,
      "चारियों": 5736,
      "▁रास्त": 5737,
      "▁निका": 5738,
      "▁अधि": 5739,
      "ांसी": 5740,
      "▁वस्त्र": 5741,
      "बो": 5742,
      "▁मग": 5743,
      "▁पांड": 5744,
      "▁राजपूत": 5745,
      "▁विजे": 5746,
      "▁पुर्तग": 5747,
      "▁;": 5748,
      "▁शैल": 5749,
      "▁श्रीलंका": 5750,
      "35": 5751,
      "▁बढ़ावा": 5752,
      "▁मातृ": 5753,
      "▁आपूर्ति": 5754,
      "▁चार्ल्स": 5755,
      "पों": 5756,
      "▁व्र": 5757,
      "49": 5758,
      "▁कानूनी": 5759,
      "▁तथ्य": 5760,
      "्ली": 5761,
      "▁संस्थापक": 5762,
      "▁आविष्कार": 5763,
      "▁मोर": 5764,
      "▁अह": 5765,
      "लाइ": 5766,
      "▁पौधे": 5767,
      "▁झु": 5768,
      "▁स्वाम": 5769,
      "▁मद्र": 5770,
      "▁संकट": 5771,
      "▁असफल": 5772,
      "▁2,": 5773,
      "▁करेंगे": 5774,
      "ज,": 5775,
      "▁अभ्यास": 5776,
      "▁चाहिये": 5777,
      "▁समझने": 5778,
      "▁मंगोल": 5779,
      "▁प्रेरणा": 5780,
      "सूत्र": 5781,
      "▁बचा": 5782,
      "ुत्प": 5783,
      "▁बढ़ाने": 5784,
      "▁मिला।": 5785,
      "राह": 5786,
      "ंचल": 5787,
      "-रे": 5788,
      "▁फ़ार": 5789,
      "▁गई।\n": 5790,
      "▁उत्पादों": 5791,
      "मन्त्री": 5792,
      "▁बनाना": 5793,
      "ॉस": 5794,
      "स्को": 5795,
      "▁45": 5796,
      "▁कायम": 5797,
      "सिड": 5798,
      "▁मौलिक": 5799,
      "वती": 5800,
      "नाग": 5801,
      "▁गए।\n": 5802,
      "▁टैग": 5803,
      "▁हमले": 5804,
      "▁प्रणाल": 5805,
      "▁बेटे": 5806,
      "▁पहुंचा": 5807,
      "▁उपज": 5808,
      "▁कराने": 5809,
      "▁मुख्यमंत्री": 5810,
      "▁सका": 5811,
      "ोग्रा": 5812,
      "कालिक": 5813,
      "▁मिशन": 5814,
      "▁खोल": 5815,
      "▁स्तंभ": 5816,
      "ाइयों": 5817,
      "जल": 5818,
      "▁कुशल": 5819,
      "उथ": 5820,
      "वर्ड": 5821,
      "▁प्राणी": 5822,
      "दिन": 5823,
      "▁जड़": 5824,
      "▁पेशे": 5825,
      "▁डिज़": 5826,
      "▁उच्चारण": 5827,
      "▁नयी": 5828,
      "▁गाने": 5829,
      "▁दोस्त": 5830,
      "▁महात्मा": 5831,
      "▁इलाज": 5832,
      "▁न्यायाधीश": 5833,
      "▁निष्कर्ष": 5834,
      "oc": 5835,
      "▁होल": 5836,
      "▁पुष्टि": 5837,
      "▁मराठी": 5838,
      "▁सेट": 5839,
      "सीय": 5840,
      "▁व्याकरण": 5841,
      "▁मारे": 5842,
      "▁आध्या": 5843,
      "्मा": 5844,
      "▁32": 5845,
      "▁छूटती": 5846,
      "▁जूलियन": 5847,
      "▁उभ": 5848,
      "▁विचारधारा": 5849,
      "▁ऋषि": 5850,
      "वाहिक": 5851,
      "नन": 5852,
      "▁प्रेस": 5853,
      "▁तीसरा": 5854,
      "त्रिम": 5855,
      "▁प्रतिभा": 5856,
      "▁पुस्तकों": 5857,
      "मंडल": 5858,
      "▁धारणा": 5859,
      "त्मिक": 5860,
      "▁2017": 5861,
      "▁फीट": 5862,
      "▁अदाल": 5863,
      "▁यथा": 5864,
      "जीवन": 5865,
      "▁इस्लामी": 5866,
      "ेन्द्र": 5867,
      "▁ऋतु": 5868,
      "▁प्रोटीन": 5869,
      "क्ता": 5870,
      "▁एंज": 5871,
      "▁सुझाव": 5872,
      "▁शराब": 5873,
      "हारिक": 5874,
      "▁ड्राइ": 5875,
      "चंद्र": 5876,
      "▁बदले": 5877,
      "▁आल": 5878,
      "▁चाहे": 5879,
      "▁रोगों": 5880,
      "▁तुम्": 5881,
      "▁प्राव": 5882,
      "▁गंग": 5883,
      "▁डर": 5884,
      "▁तला": 5885,
      "▁निर्देशक": 5886,
      "वाना": 5887,
      "▁कार्यक्रमों": 5888,
      "▁अल्मोड़ा": 5889,
      "▁पुरात": 5890,
      "्ग": 5891,
      "▁186": 5892,
      "▁कम्पनी": 5893,
      "बीसी": 5894,
      "▁टीका": 5895,
      "▁फुटबॉल": 5896,
      "▁विविधता": 5897,
      "▁पाप": 5898,
      "▁शिखर": 5899,
      "▁पंडित": 5900,
      "▁श्रेष्ठ": 5901,
      "▁ज़्यादा": 5902,
      "▁कर्मचारियों": 5903,
      "▁बीस": 5904,
      "▁आजकल": 5905,
      "▁नो": 5906,
      "▁वास": 5907,
      "ांतरण": 5908,
      "▁अभिनेत्री": 5909,
      "▁निकाला": 5910,
      "▁शिल्प": 5911,
      "▁संबद्ध": 5912,
      "जनन": 5913,
      "▁पाठ्यक्रम": 5914,
      "ीकृत": 5915,
      "▁पदक": 5916,
      "▁बेस": 5917,
      "▁फोट": 5918,
      "▁किंगडम": 5919,
      "▁विक्रमी": 5920,
      "जिक": 5921,
      "▁अग्नि": 5922,
      "▁हॉल": 5923,
      "▁गए,": 5924,
      "्सों": 5925,
      "ियनशिप": 5926,
      "ठे": 5927,
      "▁तथापि": 5928,
      "▁रिस": 5929,
      "▁माध": 5930,
      "99": 5931,
      "ाफ": 5932,
      "▁खुल": 5933,
      "▁संप्रदाय": 5934,
      "AM": 5935,
      "र्जी": 5936,
      "तायात": 5937,
      "ार्ट": 5938,
      "▁मंदिरों": 5939,
      "▁मद्रास": 5940,
      "▁इसको": 5941,
      "▁स्कॉटलैंड": 5942,
      "▁इसलिये": 5943,
      "▁व्यापारिक": 5944,
      "▁रचनाओं": 5945,
      "▁हाउस": 5946,
      "▁जापानी": 5947,
      "धानिक": 5948,
      "′′E": 5949,
      "स्पर": 5950,
      "▁इलेक्ट्रॉनिक": 5951,
      "▁नमू": 5952,
      "▁ज्वाला": 5953,
      "प्ट": 5954,
      "▁टूट": 5955,
      "▁\"ब": 5956,
      "▁गलत": 5957,
      "▁500": 5958,
      "▁अनुरूप": 5959,
      "▁संक्ष": 5960,
      "▁सीख": 5961,
      "ov": 5962,
      "▁लगते": 5963,
      "▁वनस्पति": 5964,
      "▁उपनि": 5965,
      "▁शिवाजी": 5966,
      "नीति": 5967,
      "▁\"प": 5968,
      "ंपिक": 5969,
      "बरी": 5970,
      "▁पीढ़ी": 5971,
      "ज्": 5972,
      "▁पथ": 5973,
      "▁बू": 5974,
      "ल्ली": 5975,
      "बाज": 5976,
      "▁निधन": 5977,
      "▁77": 5978,
      "▁सामान": 5979,
      "ांट": 5980,
      "▁मिथ": 5981,
      "▁मिश्रित": 5982,
      "▁लेखकों": 5983,
      "▁केंद्रित": 5984,
      "▁संवाद": 5985,
      "▁कमज": 5986,
      "स्थल": 5987,
      "ian": 5988,
      "▁फ़िल्मों": 5989,
      "▁वाहन": 5990,
      "▁अन्तर्राष्ट्रीय": 5991,
      "▁गवर्नर": 5992,
      "ht": 5993,
      "▁अवश्य": 5994,
      "▁बारह": 5995,
      "सै": 5996,
      "▁समु": 5997,
      "▁इर": 5998,
      "▁स्वतन्त्र": 5999,
      "ेयर": 6000,
      "▁यातायात": 6001,
      "▁अनुप्रयोग": 6002,
      "▁बाबा": 6003,
      "▁बंगल": 6004,
      "▁ज्योतिष": 6005,
      "ासत": 6006,
      "▁निर्धारण": 6007,
      "▁धूम": 6008,
      "▁शहरी": 6009,
      "▁रही।": 6010,
      "नात्मक": 6011,
      "क्षी": 6012,
      "ेदारी": 6013,
      "▁देखकर": 6014,
      "▁मालिक": 6015,
      "कत": 6016,
      "ॉड": 6017,
      "▁संहिता": 6018,
      "▁सफेद": 6019,
      "शीलता": 6020,
      "▁मोटर": 6021,
      "▁ट्यू": 6022,
      "म्स": 6023,
      "▁इसील": 6024,
      "िटेड": 6025,
      "▁किरदार": 6026,
      "िब": 6027,
      "▁यो": 6028,
      "दाता": 6029,
      "▁अंध": 6030,
      "▁यथ": 6031,
      "ap": 6032,
      "वाँ": 6033,
      "▁पुस्तकाल": 6034,
      "ुश": 6035,
      "▁कोर्ट": 6036,
      "▁यश": 6037,
      "▁इस्प": 6038,
      "वाहित": 6039,
      "दीय": 6040,
      "▁सश": 6041,
      "विश": 6042,
      "▁प्रयोगशाला": 6043,
      "▁कृत्रिम": 6044,
      "▁नैनी": 6045,
      "स्वती": 6046,
      "▁मादा": 6047,
      "▁आर्ट": 6048,
      "▁\"म": 6049,
      "▁निरा": 6050,
      "▁न्यून": 6051,
      "▁तारे": 6052,
      "▁अलीगढ़": 6053,
      "▁तारों": 6054,
      "धारी": 6055,
      "▁जगत": 6056,
      "▁दर्जा": 6057,
      "▁गौतम": 6058,
      "▁संगठनों": 6059,
      "▁निर्वाचित": 6060,
      "▁तरल": 6061,
      "▁फैसला": 6062,
      "▁कोण": 6063,
      "▁पाकिस्तानी": 6064,
      "▁मेरी": 6065,
      "▁खर्च": 6066,
      "▁75": 6067,
      "बाजी": 6068,
      "▁अर्जुन": 6069,
      "▁खींच": 6070,
      "▁द्रव्यमान": 6071,
      "द्वार": 6072,
      "ोंग": 6073,
      "▁प्रार्थ": 6074,
      "▁तुरंत": 6075,
      "▁25°": 6076,
      "ine": 6077,
      "▁पंजाबी": 6078,
      "▁उपनिवेश": 6079,
      "▁25.1": 6080,
      "▁कमा": 6081,
      "▁मुक्ति": 6082,
      "▁सीट": 6083,
      "घात": 6084,
      "▁शुक": 6085,
      "▁मगर": 6086,
      "▁स्थलों": 6087,
      "▁पंचाग": 6088,
      "▁कोर": 6089,
      "वाणी": 6090,
      "▁लेती": 6091,
      "▁ईस्ट": 6092,
      "टकों": 6093,
      "▁नीत": 6094,
      "▁बंदरगाह": 6095,
      "▁al": 6096,
      "िफ": 6097,
      "▁वस": 6098,
      "▁अत्या": 6099,
      "▁जातक": 6100,
      "▁कि॰मी॰": 6101,
      "▁मिनट।\n": 6102,
      "▁तिरु": 6103,
      "मती": 6104,
      "हाई": 6105,
      "▁वैज्ञानिकों": 6106,
      "चंद": 6107,
      "ंडों": 6108,
      "▁पशुओं": 6109,
      "▁लिमिटेड": 6110,
      "वारों": 6111,
      "▁पक्षी": 6112,
      "▁जंगल": 6113,
      "िस्पर्": 6114,
      "▁संबंधों": 6115,
      "▁हजारों": 6116,
      "▁वक्त": 6117,
      "▁भंड": 6118,
      "▁चाव": 6119,
      "▁किस्म": 6120,
      "सूर": 6121,
      "त्रियों": 6122,
      "▁बुनिया": 6123,
      "ith": 6124,
      "▁क्रांतिक": 6125,
      "▁हरियाणा": 6126,
      "▁दशा": 6127,
      "▁समकालीन": 6128,
      "▁मठ": 6129,
      "▁श्रेय": 6130,
      "▁नहर": 6131,
      "▁मथुरा": 6132,
      "▁स्वर्ग": 6133,
      "▁सम्प्र": 6134,
      "▁विकिरण": 6135,
      "▁अधारित": 6136,
      "लिन": 6137,
      "▁भट्ट": 6138,
      "▁संतुल": 6139,
      "फार": 6140,
      "▁36": 6141,
      "▁हिस्सों": 6142,
      "ेंग": 6143,
      "▁उद्य": 6144,
      "▁आश्रम": 6145,
      "▁स्मारक": 6146,
      "▁कलेण्डर": 6147,
      "▁हेल": 6148,
      "▁छाया": 6149,
      "▁प्रयत्न": 6150,
      "▁नेताओं": 6151,
      "22": 6152,
      "▁बाह्य": 6153,
      "▁सच्च": 6154,
      "्चर": 6155,
      "▁जिम्मेदार": 6156,
      "ोल्ट": 6157,
      "ाजा": 6158,
      "▁टन": 6159,
      "▁प्रतिस्पर्": 6160,
      "▁आकर्षण": 6161,
      "लै": 6162,
      "▁दस्ता": 6163,
      "▁वेग": 6164,
      "ोड़ी": 6165,
      "▁शल्य": 6166,
      "▁फसल": 6167,
      "▁फ्रेंच": 6168,
      "ud": 6169,
      "▁सफ़": 6170,
      "▁हाइ": 6171,
      "ंगिक": 6172,
      "▁बहन": 6173,
      "▁इलाकों": 6174,
      "▁सोस": 6175,
      "▁समन्व": 6176,
      "▁खण्ड": 6177,
      "म्बई": 6178,
      "▁कर्ण": 6179,
      "▁पौरा": 6180,
      "▁इन्हीं": 6181,
      "▁समझौते": 6182,
      "▁किश": 6183,
      "▁टू": 6184,
      "ter": 6185,
      "▁बाइ": 6186,
      "▁वस्तुत": 6187,
      "▁आध्यात्मिक": 6188,
      "ub": 6189,
      "श्र": 6190,
      "▁इन्द्र": 6191,
      "▁आद": 6192,
      "▁टाइम्स": 6193,
      "▁घनत्व": 6194,
      "ाका": 6195,
      "ामान्य": 6196,
      "▁शत्र": 6197,
      "संख्यक": 6198,
      "ाणु": 6199,
      "▁प्रार्थना": 6200,
      "▁रेश": 6201,
      "ंध्र": 6202,
      "▁एशियाई": 6203,
      "▁जू": 6204,
      "▁नाभ": 6205,
      "▁प्रधानमन्त्री": 6206,
      "हाल": 6207,
      "▁अंब": 6208,
      "▁फोन": 6209,
      "भाल": 6210,
      "▁इण्ड": 6211,
      "▁विद्यमान": 6212,
      "▁नज़र": 6213,
      "▁प्रसारित": 6214,
      "▁कलक": 6215,
      "▁सुनिश्चित": 6216,
      "▁ष": 6217,
      "▁तू": 6218,
      "▁स्टू": 6219,
      "▁Ch": 6220,
      "▁समीकरण": 6221,
      "▁स्त्र": 6222,
      "जो": 6223,
      "▁तिल": 6224,
      "▁डाइ": 6225,
      "▁कारक": 6226,
      "▁देखी": 6227,
      "▁बालक": 6228,
      "▁पुणे": 6229,
      "▁\"आ": 6230,
      "▁जैविक": 6231,
      "▁रिच": 6232,
      "▁बंगाली": 6233,
      "▁आयरलैंड": 6234,
      "▁एक्सप्रेस": 6235,
      "▁पट्ट": 6236,
      "▁भी,": 6237,
      "▁धो": 6238,
      "ोपाल": 6239,
      "▁इस्पात": 6240,
      "▁भ्रम": 6241,
      "▁तनाव": 6242,
      "े।": 6243,
      "▁परत": 6244,
      "▁गीता": 6245,
      "▁समृद्ध": 6246,
      "▁साइट": 6247,
      "▁सेन": 6248,
      "ष्मा": 6249,
      "▁शान": 6250,
      "▁1991": 6251,
      "▁इतने": 6252,
      "▁बेहद": 6253,
      "▁पतन": 6254,
      "▁मुताब": 6255,
      "09": 6256,
      "▁बुर": 6257,
      "▁1996": 6258,
      "▁बैठक": 6259,
      "▁कन्या": 6260,
      "▁as": 6261,
      "भूति": 6262,
      "▁प्रतिष्ठित": 6263,
      "▁पौराणिक": 6264,
      "धर्म": 6265,
      "▁नंबर": 6266,
      "▁दोनो": 6267,
      "ख्त": 6268,
      "▁मुश्क": 6269,
      "क्‍": 6270,
      "▁पुष्प": 6271,
      "जनक": 6272,
      ".\t": 6273,
      "ity": 6274,
      "▁जल्द": 6275,
      "▁प्रत्या": 6276,
      "if": 6277,
      "▁नल": 6278,
      "▁जानवरों": 6279,
      "▁संस्थाओं": 6280,
      "▁गद्य": 6281,
      "ून्य": 6282,
      "▁ख़ान": 6283,
      "▁वेल्स": 6284,
      "▁टिप्प": 6285,
      "▁विट": 6286,
      "▁बाज़ार": 6287,
      "▁उष्ण": 6288,
      "14": 6289,
      "िकार": 6290,
      "रात": 6291,
      "ज़े": 6292,
      "▁निर्देशित": 6293,
      "▁नैनीताल": 6294,
      "न्धी": 6295,
      "▁विफल": 6296,
      "▁साहि": 6297,
      "▁देहा": 6298,
      "लर": 6299,
      "▁ऍ": 6300,
      "▁गैल": 6301,
      "▁संब": 6302,
      "▁क्रिस्ट": 6303,
      "▁रास्ते": 6304,
      "▁सिव": 6305,
      "▁एंटी": 6306,
      "त्‍": 6307,
      "▁खराब": 6308,
      "मक": 6309,
      "▁आदमी": 6310,
      "▁गिल": 6311,
      "▁थोड़ा": 6312,
      "▁दौरा": 6313,
      "-पूर्व": 6314,
      "धीन": 6315,
      "▁कहा,": 6316,
      "▁मनुष्यों": 6317,
      "▁उच्चतम": 6318,
      "▁गोल्ड": 6319,
      "▁म्यू": 6320,
      "▁सेक": 6321,
      "▁हुई।\n": 6322,
      "▁आपके": 6323,
      "▁पहन": 6324,
      "▁गोवि": 6325,
      "▁आपने": 6326,
      "▁धरती": 6327,
      "▁निर्देशन": 6328,
      "▁फ्रांसीसी": 6329,
      "कै": 6330,
      "ेव": 6331,
      "▁सारा": 6332,
      "art": 6333,
      "▁कन्नौज": 6334,
      "ोलॉ": 6335,
      "▁अवय": 6336,
      "▁परस्पर": 6337,
      "ant": 6338,
      "▁अणु": 6339,
      "▁नोट": 6340,
      "▁अद्व": 6341,
      "▁कबीर": 6342,
      "ूदी": 6343,
      "▁संग्राम": 6344,
      "▁शुरूआत": 6345,
      "▁यूनिवर्स": 6346,
      "▁खनिज": 6347,
      "▁सुबह": 6348,
      "▁चुनावों": 6349,
      "▁किला": 6350,
      "▁श्वेत": 6351,
      "▁दस्तावे": 6352,
      "age": 6353,
      "▁तत्प": 6354,
      "मुना": 6355,
      "▁विंड": 6356,
      "सों": 6357,
      "▁जवाब": 6358,
      "▁अहमद": 6359,
      "▁प्रदेशों": 6360,
      "▁1997": 6361,
      "37": 6362,
      "▁नामों": 6363,
      "भौ": 6364,
      "शक्ति": 6365,
      "▁टिक": 6366,
      "▁पीड़ित": 6367,
      "ोर्स": 6368,
      "▁खुला": 6369,
      "▁कब्जा": 6370,
      "▁प्रजनन": 6371,
      "▁यथार्थ": 6372,
      "▁खेत": 6373,
      "▁बांध": 6374,
      "▁स्थानांतरित": 6375,
      "▁चित्रण": 6376,
      "▁चुंब": 6377,
      "▁शौ": 6378,
      "िप्ट": 6379,
      "▁बदला": 6380,
      "▁ओलंपिक": 6381,
      "▁बस्ती": 6382,
      "वासियों": 6383,
      "▁लक्षणों": 6384,
      "▁लाहौर": 6385,
      "▁हू": 6386,
      "▁करनी": 6387,
      "▁त्रुट": 6388,
      "ुदा": 6389,
      "▁रामाय": 6390,
      "उन": 6391,
      "▁व्युत्प": 6392,
      "▁आगमन": 6393,
      "▁बोलने": 6394,
      "▁गुरुत": 6395,
      "▁वाइ": 6396,
      "▁यानी": 6397,
      "▁दरबार": 6398,
      "तेह": 6399,
      "▁कार्यकाल": 6400,
      "▁गुना": 6401,
      "▁पर्यटक": 6402,
      "▁मोन": 6403,
      "▁डिजिटल": 6404,
      "▁चाहिए,": 6405,
      "▁जाए।": 6406,
      "ंधन": 6407,
      "▁ऊँचा": 6408,
      "▁रहना": 6409,
      "▁सेवन": 6410,
      "▁डेविड": 6411,
      "▁जल्दी": 6412,
      "▁निदान": 6413,
      "▁गई,": 6414,
      "ोसिए": 6415,
      "▁con": 6416,
      "▁25.6": 6417,
      "▁संक्षिप्त": 6418,
      "▁सालों": 6419,
      "ाँति": 6420,
      "▁सूरज": 6421,
      "28": 6422,
      "▁सहार": 6423,
      "▁नोब": 6424,
      "▁1.": 6425,
      "▁महाविद्यालय": 6426,
      "▁गोली": 6427,
      "▁ली।": 6428,
      "▁85.1": 6429,
      "▁पड़ी": 6430,
      "ang": 6431,
      "्ज़": 6432,
      "▁सरस्वती": 6433,
      "▁की.": 6434,
      "▁विजेता": 6435,
      "▁साक्षात्": 6436,
      "ंकार": 6437,
      "▁जुड़ी": 6438,
      "ट,": 6439,
      "▁चैम्प": 6440,
      "▁°": 6441,
      "▁बुनियादी": 6442,
      "शायर": 6443,
      "▁पन": 6444,
      "ूष": 6445,
      "▁कड़ी": 6446,
      "▁पोट": 6447,
      "▁राष्ट्रों": 6448,
      "बाई": 6449,
      "▁\"द": 6450,
      "▁बनते": 6451,
      "▁संघीय": 6452,
      "▁वर्गों": 6453,
      "▁मुला": 6454,
      "▁गिरफ्त": 6455,
      "▁कारा": 6456,
      "▁मध्यम": 6457,
      "▁रुपये": 6458,
      "▁आशा": 6459,
      "बिल": 6460,
      "वादियों": 6461,
      "ंटर": 6462,
      "▁गार्ड": 6463,
      "▁सम्बन्धित": 6464,
      "▁संभवतः": 6465,
      "▁देखे": 6466,
      "दर्शी": 6467,
      "▁साथी": 6468,
      "▁करेगा": 6469,
      "ायल": 6470,
      "▁हरे": 6471,
      "ate": 6472,
      "याग": 6473,
      "▁काग": 6474,
      "▁शर्त": 6475,
      "▁हेनरी": 6476,
      "▁आवास": 6477,
      "▁1930": 6478,
      "▁बने।": 6479,
      "▁तिथि": 6480,
      "हूर": 6481,
      "▁शाहज": 6482,
      "▁गोरखपुर": 6483,
      "3,": 6484,
      "▁बेटी": 6485,
      "▁केश": 6486,
      "▁25.611": 6487,
      "▁85.144": 6488,
      "▁इंद्र": 6489,
      "▁यान": 6490,
      "▁स्वामित्व": 6491,
      "▁होगी।": 6492,
      "गरीय": 6493,
      "▁!": 6494,
      "▁घे": 6495,
      "▁परिचय": 6496,
      "▁डिस्क": 6497,
      "▁आवाज": 6498,
      "▁मोहम्मद": 6499,
      "und": 6500,
      "▁भट": 6501,
      "ाले": 6502,
      "लीन": 6503,
      "▁राज्यपाल": 6504,
      "चालन": 6505,
      "▁परंपरागत": 6506,
      "▁बहुमत": 6507,
      "कार्ब": 6508,
      "▁रेग": 6509,
      "ावत": 6510,
      "▁कार्बनिक": 6511,
      "गंगा": 6512,
      "▁संच": 6513,
      "ort": 6514,
      "▁तुर्क": 6515,
      "ग़ल": 6516,
      "▁मुश्किल": 6517,
      "▁प्रभावशाली": 6518,
      "समूह": 6519,
      "▁व्यंजन": 6520,
      "▁नाथ": 6521,
      "▁कौन": 6522,
      "▁ब्रे": 6523,
      "▁स्टेड": 6524,
      "▁सहज": 6525,
      "▁मान्य": 6526,
      "▁अग्रणी": 6527,
      "▁तिब्बत": 6528,
      "▁पराजित": 6529,
      "ंस्ट": 6530,
      "▁बल्ले": 6531,
      "ि,": 6532,
      "▁बम": 6533,
      "▁1992": 6534,
      "मीन": 6535,
      "▁अनंत": 6536,
      "▁सोने": 6537,
      "ग्रस्त": 6538,
      "▁पौड़ी": 6539,
      "▁लू": 6540,
      "सी,": 6541,
      "र्घटना": 6542,
      "▁मछली": 6543,
      "ोना": 6544,
      "-पर": 6545,
      "रक": 6546,
      "▁अत्यन्त": 6547,
      "मोहन": 6548,
      "▁छाप": 6549,
      "▁कुरान": 6550,
      "▁कैथोलिक": 6551,
      "▁अवतार": 6552,
      "▁करना,": 6553,
      "▁आईसीसी": 6554,
      "▁पठार": 6555,
      "ill": 6556,
      "काय": 6557,
      "▁अज्ञ": 6558,
      "▁कीमत": 6559,
      "▁1995": 6560,
      "▁संभावित": 6561,
      "29": 6562,
      "▁गरम": 6563,
      "▁प्रशंसा": 6564,
      "▁होटल": 6565,
      "▁टेलीविजन": 6566,
      "र्ध": 6567,
      "▁उपदेश": 6568,
      "▁पूंजी": 6569,
      "र्पण": 6570,
      "▁दिया.": 6571,
      "▁पर्यटकों": 6572,
      "▁स्नान": 6573,
      "▁छः": 6574,
      "▁आउट": 6575,
      "ep": 6576,
      "--": 6577,
      "▁प्राणियों": 6578,
      "▁Ind": 6579,
      "▁शुक्ल": 6580,
      "-छ": 6581,
      "▁आपस": 6582,
      "ोबार": 6583,
      "▁रोगियों": 6584,
      "▁संपन्न": 6585,
      "▁कर्मचारी": 6586,
      "▁औषध": 6587,
      "48": 6588,
      "फ़ा": 6589,
      "▁चलाने": 6590,
      "▁संयोजन": 6591,
      "▁चेतना": 6592,
      "खिक": 6593,
      "▁चलकर": 6594,
      "▁निकलने": 6595,
      "▁चाहिए।\n": 6596,
      "▁समाव": 6597,
      "बंधन": 6598,
      "फोर्ड": 6599,
      "▁अभिव्यक्ति": 6600,
      "▁अभिक": 6601,
      "▁जितना": 6602,
      "▁आंध्र": 6603,
      "▁पुत्री": 6604,
      "▁मैचों": 6605,
      "पालिका": 6606,
      "▁कठिना": 6607,
      "▁चैंप": 6608,
      "▁क्रमशः": 6609,
      "▁आज़": 6610,
      "▁विशेषकर": 6611,
      "्श": 6612,
      "▁संसाध": 6613,
      "फ्फर": 6614,
      "▁भूकंप": 6615,
      "याल": 6616,
      "▁डाटा": 6617,
      "▁आया।": 6618,
      "▁नजर": 6619,
      "▁खाना": 6620,
      "2,": 6621,
      "▁पूर": 6622,
      "▁परा": 6623,
      "्सी": 6624,
      "▁बहादुर": 6625,
      "▁जिलों": 6626,
      "▁बेर": 6627,
      "▁उद्ध": 6628,
      "▁ग्व": 6629,
      "यें": 6630,
      "वाही": 6631,
      "▁दुर्घटना": 6632,
      "▁धारावाहिक": 6633,
      "्रह": 6634,
      "▁बसे": 6635,
      "▁|ब": 6636,
      "▁निर्यात": 6637,
      "▁प्रारूप": 6638,
      "....": 6639,
      "▁जंगली": 6640,
      "▁आनुवंश": 6641,
      "पोर्ट": 6642,
      "ाकुर": 6643,
      "▁प्रोफेसर": 6644,
      "▁नास": 6645,
      "▁भूत": 6646,
      "▁एम.": 6647,
      "▁साहिब": 6648,
      "▁जाँच": 6649,
      "▁बादशाह": 6650,
      "▁बहती": 6651,
      "▁शक्तियों": 6652,
      "▁कलकत्ता": 6653,
      "▁शरण": 6654,
      "▁प्रवृत्ति": 6655,
      "53": 6656,
      "▁आंशिक": 6657,
      "▁कारख": 6658,
      "▁श्रम": 6659,
      "26": 6660,
      "▁लम्बी": 6661,
      "▁गहराई": 6662,
      "▁मनोरंजन": 6663,
      "ip": 6664,
      "▁हैं-\n": 6665,
      "िंग,": 6666,
      "▁स्तन": 6667,
      "▁अवार्ड": 6668,
      "▁देखें": 6669,
      "▁प्राण": 6670,
      "▁प्रयासों": 6671,
      "साइट": 6672,
      "▁लहर": 6673,
      "▁आरंभिक": 6674,
      "वश": 6675,
      "ोजी": 6676,
      "▁लक्ष्मी": 6677,
      "स्र": 6678,
      "▁उत्तराधिकारी": 6679,
      "▁वाणिज्यिक": 6680,
      "ev": 6681,
      "▁बीमार": 6682,
      "गाँ": 6683,
      "▁ख्या": 6684,
      "ik": 6685,
      "▁बन्द": 6686,
      "नाडु": 6687,
      "▁ब्रज": 6688,
      "▁हमारी": 6689,
      "▁अदालत": 6690,
      "ार्ध": 6691,
      "▁रुचि": 6692,
      "▁मानवीय": 6693,
      "▁उन्नत": 6694,
      "▁चरम": 6695,
      "वाड़": 6696,
      "-0": 6697,
      "चुर": 6698,
      "▁x": 6699,
      "▁थॉम": 6700,
      "▁2.": 6701,
      "्रीन": 6702,
      "▁अभिले": 6703,
      "▁कम्प्यूटर": 6704,
      "▁भय": 6705,
      "षा": 6706,
      "▁डबल": 6707,
      "क्राम": 6708,
      "ard": 6709,
      "ोडा": 6710,
      "ess": 6711,
      "▁निहित": 6712,
      "ष्णा": 6713,
      "िताब": 6714,
      "▁मिली।": 6715,
      "▁निदेशक": 6716,
      "▁बोस": 6717,
      "▁खड़े": 6718,
      "▁|ह": 6719,
      "▁गुर्": 6720,
      "▁बिग": 6721,
      "▁सहारा": 6722,
      "नुमान": 6723,
      "ain": 6724,
      "त्तम": 6725,
      "▁कैलि": 6726,
      "▁भूमध्य": 6727,
      "घाटन": 6728,
      "आन": 6729,
      "▁भव्य": 6730,
      "▁मशहूर": 6731,
      "▁फतेह": 6732,
      "▁1971": 6733,
      "▁चिंत": 6734,
      "▁यहूदी": 6735,
      "▁स्वभाव": 6736,
      "▁प्रतिद्व": 6737,
      "▁लंबा": 6738,
      "▁व्यावहारिक": 6739,
      "वर्ग": 6740,
      "ामिन": 6741,
      "▁भूषण": 6742,
      "▁खिलाड़ियों": 6743,
      "्यौ": 6744,
      "▁धर्म,": 6745,
      "▁वाक्य": 6746,
      "▁सेंटर": 6747,
      "|\n": 6748,
      "▁उसको": 6749,
      "▁कहता": 6750,
      "▁कैम": 6751,
      "▁इसीलिए": 6752,
      "▁गणेश": 6753,
      "▁पिक": 6754,
      "▁इलाके": 6755,
      "67": 6756,
      "णुओं": 6757,
      "ंग,": 6758,
      "▁कॉल": 6759,
      "▁'प": 6760,
      "▁स्टेडियम": 6761,
      "ग्रहण": 6762,
      "▁आश्र": 6763,
      "▁सकारात्मक": 6764,
      "▁1000": 6765,
      "▁बर्फ": 6766,
      "▁शास्त्रीय": 6767,
      "▁एथ": 6768,
      "▁300": 6769,
      "▁शासनकाल": 6770,
      "▁उद्योगों": 6771,
      "▁कपूर": 6772,
      "▁पाते": 6773,
      "▁कवियों": 6774,
      "▁चिंता": 6775,
      "ण्य": 6776,
      "वारी": 6777,
      "▁॥": 6778,
      "ोषित": 6779,
      "▁दर्शकों": 6780,
      "▁150": 6781,
      "▁कपड़े": 6782,
      "कथा": 6783,
      "▁एका": 6784,
      "द्दा": 6785,
      "▁प्रक्रियाओं": 6786,
      "-ह": 6787,
      "▁रॉयल": 6788,
      "▁साक्षरता": 6789,
      "▁खड़ा": 6790,
      "▁गायक": 6791,
      "िसी": 6792,
      "▁लोगो": 6793,
      "▁दृढ़": 6794,
      "ाउंड": 6795,
      "▁बचाने": 6796,
      "▁कमजोर": 6797,
      "कन": 6798,
      "▁वृत्त": 6799,
      "मेन": 6800,
      ".89": 6801,
      "up": 6802,
      "▁क्रिस": 6803,
      "▁ठाकुर": 6804,
      "▁विरासत": 6805,
      "ट्स": 6806,
      "्रोल": 6807,
      "▁देर": 6808,
      "क्कर": 6809,
      "ies": 6810,
      "▁क्रमश:": 6811,
      "लेन": 6812,
      "ग्राम": 6813,
      "▁दरव": 6814,
      "▁तरीकों": 6815,
      "▁प्रोत्साहित": 6816,
      "काम": 6817,
      "▁खुले": 6818,
      "▁मगध": 6819,
      "▁दाब": 6820,
      "श्री": 6821,
      "▁जिनसे": 6822,
      "▁प्रतिबंध": 6823,
      "▁with": 6824,
      "ast": 6825,
      "▁दौरे": 6826,
      "▁अनुश": 6827,
      "▁ग्रीष्म": 6828,
      "▁पाण्ड": 6829,
      "▁अपनाया": 6830,
      "▁कल्प": 6831,
      "▁निकाय": 6832,
      "▁हास्य": 6833,
      "ोश": 6834,
      "▁कही": 6835,
      "ती,": 6836,
      "▁कर्त": 6837,
      "▁शिक्षण": 6838,
      "▁में।": 6839,
      "कल्पिक": 6840,
      "पथ": 6841,
      "▁बढ़ता": 6842,
      "▁by": 6843,
      "▁संशोधन": 6844,
      "▁नायक": 6845,
      "िस्टर": 6846,
      "▁स्टूडियो": 6847,
      "▁योग्यता": 6848,
      "▁संस्थानों": 6849,
      "▁दंड": 6850,
      "▁बताते": 6851,
      "आर.टी": 6852,
      "अप": 6853,
      "ाबाद": 6854,
      "▁जोकि": 6855,
      "▁हाथी": 6856,
      "▁अमेरिकन": 6857,
      "▁पोस्ट": 6858,
      "39": 6859,
      "विल": 6860,
      "क्रिय": 6861,
      "▁37": 6862,
      "▁उपयोगकर्ता": 6863,
      "▁खत्म": 6864,
      "▁180": 6865,
      "▁गुरू": 6866,
      "▁वास्तुक": 6867,
      "▁मौजू": 6868,
      "पान": 6869,
      "▁विभक्त": 6870,
      "▁1994": 6871,
      "▁नौसेना": 6872,
      "ैली": 6873,
      "्रल": 6874,
      "▁हज़": 6875,
      "देह": 6876,
      "▁wh": 6877,
      "▁मौजूदा": 6878,
      "▁समझौता": 6879,
      "सूरत": 6880,
      "ोर्निया": 6881,
      "▁शून्य": 6882,
      "▁संज्ञा": 6883,
      "▁मंदिर,": 6884,
      "▁गर्मी": 6885,
      "िबंध": 6886,
      "▁हनुमान": 6887,
      "▁घरों": 6888,
      "▁लिया।\n": 6889,
      "ंसक": 6890,
      "ोनेशिया": 6891,
      "शास्त्री": 6892,
      "▁डब्ल्यू": 6893,
      "▁मेघ": 6894,
      "▁कलाकारों": 6895,
      "▁नौकरी": 6896,
      "▁नियुक्ति": 6897,
      "यिक": 6898,
      "स्टी": 6899,
      "▁was": 6900,
      "्रू": 6901,
      "िस्म": 6902,
      "▁1962": 6903,
      "▁आयुर्वेद": 6904,
      "्रिक": 6905,
      "▁जवा": 6906,
      "ोनिया": 6907,
      "▁नागरिकों": 6908,
      "▁प्रीम": 6909,
      "▁नु": 6910,
      "वानी": 6911,
      "िवे": 6912,
      "▁बनती": 6913,
      "बेथ": 6914,
      "▁सृष्टि": 6915,
      "वाड़ा": 6916,
      "्रेन": 6917,
      "▁3,": 6918,
      "olog": 6919,
      "ांज": 6920,
      "▁कार्यरत": 6921,
      "▁बग": 6922,
      "वा,": 6923,
      "▁बॉक्स": 6924,
      "ृंग": 6925,
      "▁महम": 6926,
      "ध्यक्ष": 6927,
      "▁अधिव": 6928,
      "ावन": 6929,
      "▁उदार": 6930,
      "▁महीनों": 6931,
      "आर.टी.एस": 6932,
      "कूट": 6933,
      "▁1948": 6934,
      "▁निष्प": 6935,
      "▁कमल": 6936,
      "बाल": 6937,
      "▁वजन": 6938,
      "▁चंडी": 6939,
      "▁मानचित्र": 6940,
      "▁ट्रांस": 6941,
      "▁असर": 6942,
      "▁प्रबल": 6943,
      "▁शंक": 6944,
      "▁1989": 6945,
      "▁वैकल्पिक": 6946,
      "▁जीतने": 6947,
      "▁मणि": 6948,
      "▁दिला": 6949,
      "▁गरीब": 6950,
      "▁अंगों": 6951,
      "▁हिसाब": 6952,
      "▁दायित्व": 6953,
      "▁नक्": 6954,
      "▁फाइनल": 6955,
      "चिकित": 6956,
      "▁स्का": 6957,
      "▁शैक्षिक": 6958,
      "▁साक्षात्कार": 6959,
      "▁स्वाद": 6960,
      "▁कॉम": 6961,
      "▁भरत": 6962,
      ".85": 6963,
      "णन": 6964,
      "रद": 6965,
      "▁वायरस": 6966,
      "▁सुविधाओं": 6967,
      "▁ईंधन": 6968,
      "▁अफ़्रीका": 6969,
      "▁गंध": 6970,
      "▁साफ": 6971,
      "भाविक": 6972,
      "नल": 6973,
      "▁दम": 6974,
      "▁चमक": 6975,
      "▁विनाश": 6976,
      "▁|प": 6977,
      "▁मौर्य": 6978,
      "▁श्ल": 6979,
      "वर्त": 6980,
      "्‌": 6981,
      "▁अस्था": 6982,
      "▁भाँति": 6983,
      "▁सांख्य": 6984,
      "▁टर्मिनल": 6985,
      "▁इतिहासकार": 6986,
      "°5": 6987,
      "र्ब": 6988,
      "▁सरदार": 6989,
      "▁जाएगा।": 6990,
      "▁पाये": 6991,
      "जब": 6992,
      "ोमा": 6993,
      "एनए": 6994,
      "ोही": 6995,
      "वैधानिक": 6996,
      "टिक": 6997,
      "ैड": 6998,
      "▁है।\"": 6999,
      "▁पराम": 7000,
      "▁चक": 7001,
      "▁डाक": 7002,
      "▁दुब": 7003,
      "▁ध्वज": 7004,
      "साधारण": 7005,
      "▁किसान": 7006,
      "▁बढ़ते": 7007,
      "▁उन्हीं": 7008,
      "▁कहानियों": 7009,
      "▁होता।": 7010,
      "-पिता": 7011,
      "▁शिलालेख": 7012,
      "इंग": 7013,
      "▁19वीं": 7014,
      "▁बाघ": 7015,
      "▁महादेव": 7016,
      "▁27.89": 7017,
      "▁छोर": 7018,
      "▁ऑक्सीजन": 7019,
      "▁लैटिन": 7020,
      "▁तमिलनाडु": 7021,
      "▁चिकित्सक": 7022,
      "▁78.06": 7023,
      "▁बजा": 7024,
      "ग्व": 7025,
      "▁माइकल": 7026,
      "▁उपनिषद": 7027,
      "▁भरा": 7028,
      "▁करवा": 7029,
      "▁सिन्ध": 7030,
      "▁अफ्रीकी": 7031,
      "▁रहीं": 7032,
      "▁प्रावधान": 7033,
      "▁राधा": 7034,
      "▁अंग्रेज": 7035,
      "▁गेट": 7036,
      "▁रास्ता": 7037,
      "▁अवस्थित": 7038,
      "▁शिष्य": 7039,
      "▁सुभाष": 7040,
      "कश": 7041,
      "▁हमीर": 7042,
      "नाक": 7043,
      "लन": 7044,
      "प्पा": 7045,
      "▁अड्डे": 7046,
      "▁that": 7047,
      "▁गौरव": 7048,
      "ुस्तान": 7049,
      "▁कस्": 7050,
      "▁वरि": 7051,
      "र्लभ": 7052,
      "-पश्चिम": 7053,
      "कियों": 7054,
      "श्चात": 7055,
      "▁मूल्या": 7056,
      "▁विकेट": 7057,
      "▁बिन्दु": 7058,
      "ल्सन": 7059,
      "▁परेश": 7060,
      "▁मानस": 7061,
      "▁आदि।": 7062,
      "▁बनाया।": 7063,
      "▁नवाब": 7064,
      "▁एसोसिए": 7065,
      "▁रीति": 7066,
      "▁संयंत्र": 7067,
      "टरी": 7068,
      "▁निबंध": 7069,
      "एं,": 7070,
      "▁पिथ": 7071,
      "▁उग": 7072,
      "▁पहुँचा": 7073,
      "▁यमुना": 7074,
      "▁शुष्क": 7075,
      "▁मंड": 7076,
      "▁ज़िला": 7077,
      "▁कैरियर": 7078,
      ".मी": 7079,
      "ु,": 7080,
      "▁जनस": 7081,
      "▁वोल्ट": 7082,
      "ंत्रित": 7083,
      "ug": 7084,
      "▁छवि": 7085,
      "▁सदन": 7086,
      "▁प्रिय": 7087,
      "▁सिंच": 7088,
      "डोर": 7089,
      "▁वेबसाइट": 7090,
      "▁दवाओं": 7091,
      "1′E": 7092,
      "▁पित": 7093,
      "▁खाते": 7094,
      "▁जानते": 7095,
      "▁1956": 7096,
      "▁दीप": 7097,
      "ोटे": 7098,
      "▁दूसरों": 7099,
      "▁फ्रैंक": 7100,
      "ah": 7101,
      "▁हुस": 7102,
      "▁राजन": 7103,
      "rom": 7104,
      "▁मनोविज्ञान": 7105,
      "▁संसाधन": 7106,
      "▁चुम्ब": 7107,
      "▁ऑनलाइन": 7108,
      "▁रामायण": 7109,
      "फ्र": 7110,
      "सेंस": 7111,
      "▁पड़ने": 7112,
      "िपीडिया": 7113,
      "दाद": 7114,
      "▁सिं": 7115,
      "▁बचने": 7116,
      "▁पढ़ाई": 7117,
      "▁न्यूनतम": 7118,
      "मंड": 7119,
      "▁टाउन": 7120,
      "त्कार": 7121,
      "▁चौथा": 7122,
      "200": 7123,
      "▁पर्": 7124,
      "▁यांत्रिक": 7125,
      "▁मुकद": 7126,
      "्टा": 7127,
      "▁बीमा": 7128,
      "▁स्वाय": 7129,
      "▁श्रमिक": 7130,
      "▁वरिष्ठ": 7131,
      "▁कार्यकारी": 7132,
      "▁यौन": 7133,
      "▁चुनौती": 7134,
      "महाद्वीप": 7135,
      "▁घास": 7136,
      "▁बनवाया": 7137,
      "ेनिस": 7138,
      "▁संरक्षित": 7139,
      "▁हानि": 7140,
      "▁गहरी": 7141,
      "▁खड़ी": 7142,
      "िन,": 7143,
      "द्दी": 7144,
      "-पास": 7145,
      "▁सटी": 7146,
      "▁घिरा": 7147,
      "▁ब्लू": 7148,
      "्ठा": 7149,
      "▁हेम": 7150,
      "▁जाया": 7151,
      "-इ": 7152,
      "▁दुर्लभ": 7153,
      "▁उतर": 7154,
      "▁रॉक": 7155,
      "▁कू": 7156,
      "▁अकाल": 7157,
      "▁परिक्र": 7158,
      "▁समाप्ति": 7159,
      "▁परामर्श": 7160,
      "▁माता-पिता": 7161,
      "ाजन": 7162,
      "▁लोहे": 7163,
      "▁फॉर": 7164,
      "▁फ़िर": 7165,
      "▁रखा।": 7166,
      "▁इलाक़": 7167,
      "▁मोहन": 7168,
      "▁पेशेवर": 7169,
      "जीवी": 7170,
      "▁ढां": 7171,
      "▁पृथक": 7172,
      "▁देखभाल": 7173,
      "▁आजादी": 7174,
      "▁पुस्तकालय": 7175,
      "दारी": 7176,
      "▁एकीकृत": 7177,
      "दियों": 7178,
      "▁धम": 7179,
      "▁कृति": 7180,
      "▁नजदी": 7181,
      "_{": 7182,
      "▁फारसी": 7183,
      "बरा": 7184,
      "▁उत्तम": 7185,
      "▁पुस्तकें": 7186,
      "▁सुल्तानपुर": 7187,
      "1,": 7188,
      "▁स्थितियों": 7189,
      "▁निवासियों": 7190,
      "▁नींव": 7191,
      "ary": 7192,
      "र्नल": 7193,
      "▁बनाती": 7194,
      "▁लम्बे": 7195,
      "▁परिक्रमा": 7196,
      "▁पहले,": 7197,
      "▁लगने": 7198,
      "▁'म": 7199,
      "▁लोकप्रियता": 7200,
      "▁फार्म": 7201,
      "▁ललित": 7202,
      "▁शनि": 7203,
      "▁'क": 7204,
      "▁2018": 7205,
      "▁व्रत": 7206,
      "▁अज्ञात": 7207,
      "▁भूगोल": 7208,
      "▁प्रजाति": 7209,
      "▁परिषद्": 7210,
      "▁ग्लोब": 7211,
      "▁शिशु": 7212,
      "वेन": 7213,
      "पूर्वी": 7214,
      "▁वार्ता": 7215,
      "▁वास्तु": 7216,
      "▁कहलाते": 7217,
      "▁दाह": 7218,
      "▁चम्प": 7219,
      "▁नाव": 7220,
      "▁विकिपीडिया": 7221,
      "▁चंद": 7222,
      "▁सिकन्दर": 7223,
      "▁तरीका": 7224,
      "बाज़": 7225,
      "▁सैद्ध": 7226,
      "▁आकृति": 7227,
      "▁राजस्व": 7228,
      "▁पार्श्व": 7229,
      "ायन": 7230,
      "ंकी": 7231,
      "▁विज्ञान,": 7232,
      "▁1993": 7233,
      "▁सीमाओं": 7234,
      "ूर्व": 7235,
      "▁द्वीपों": 7236,
      "ग़ानिस्तान": 7237,
      "▁भोपाल": 7238,
      "ताव": 7239,
      "▁शत्रु": 7240,
      "ताई": 7241,
      "▁राजकुमार": 7242,
      "ियाँ,": 7243,
      "55": 7244,
      "ुस": 7245,
      "▁मैरी": 7246,
      "▁सिद्धार्थ": 7247,
      "ान्तर": 7248,
      "▁विला": 7249,
      "म्मत": 7250,
      "▁हथियार": 7251,
      "नांक": 7252,
      "▁हमीरपुर": 7253,
      "भास": 7254,
      "िनि": 7255,
      "▁अस्वी": 7256,
      "▁are": 7257,
      "ूण": 7258,
      "म्बे": 7259,
      "▁चिन्ह": 7260,
      "▁शुरुआती": 7261,
      "ग्रंथ": 7262,
      "▁|\n": 7263,
      "▁जयसिंह": 7264,
      "जै": 7265,
      "▁बाई": 7266,
      "▁संवेदन": 7267,
      "श्चर्य": 7268,
      "▁प्रसन्न": 7269,
      "4,": 7270,
      "▁लड़ा": 7271,
      "▁उभर": 7272,
      "▁ने,": 7273,
      "▁पाता": 7274,
      "क्के": 7275,
      "▁आसान": 7276,
      "▁साहब": 7277,
      "ाष्प": 7278,
      "स्की": 7279,
      "▁दर्शा": 7280,
      "▁pro": 7281,
      "▁ग्रीक": 7282,
      "▁करें।": 7283,
      "▁प्रस्तावित": 7284,
      "▁काउंटी": 7285,
      "▁जिला,": 7286,
      "▁कहने": 7287,
      "▁संतान": 7288,
      "▁हस्तक्षेप": 7289,
      "▁अकेले": 7290,
      "▁डच": 7291,
      "▁हिंसा": 7292,
      "▁पंजी": 7293,
      "▁कौशल": 7294,
      "▁मुद्र": 7295,
      "रेखा": 7296,
      "ैक्ट": 7297,
      "▁दलित": 7298,
      "▁ध्रुव": 7299,
      "'s": 7300,
      "▁मृ": 7301,
      "▁फाइ": 7302,
      "89": 7303,
      "दूत": 7304,
      "▁अद्": 7305,
      "उंट": 7306,
      "िस,": 7307,
      "▁रम": 7308,
      "▁स्वच्छ": 7309,
      "▁उत्सव": 7310,
      "▁ग्राहक": 7311,
      "साई": 7312,
      "▁अन्तिम": 7313,
      "▁सैन": 7314,
      "▁बारा": 7315,
      "▁कार्र": 7316,
      "ागत": 7317,
      "▁तंत्रिका": 7318,
      "▁अंकित": 7319,
      "ंकों": 7320,
      "▁बिर": 7321,
      "▁संयोग": 7322,
      "िलास": 7323,
      "▁अनुबंध": 7324,
      "▁सत्या": 7325,
      "ियोप": 7326,
      "▁झार": 7327,
      "▁गोद": 7328,
      "▁ट्व": 7329,
      "किल": 7330,
      "▁अमरीकी": 7331,
      "▁गठबंधन": 7332,
      "▁सन्त": 7333,
      "▁उपर": 7334,
      "▁किसानों": 7335,
      "जार": 7336,
      "बिया": 7337,
      "िंट": 7338,
      "▁जोड़ने": 7339,
      "चीत": 7340,
      "▁प्रदू": 7341,
      "▁चिप": 7342,
      "▁II": 7343,
      "त्स": 7344,
      "▁शांत": 7345,
      "▁चाँ": 7346,
      "ंदर्य": 7347,
      "▁उन्हे": 7348,
      "भावना": 7349,
      "▁स्वाभाविक": 7350,
      "▁25.15": 7351,
      "ूली": 7352,
      "▁बिल्": 7353,
      "▁राग": 7354,
      "▁जातीय": 7355,
      "▁or": 7356,
      "▁साम्य": 7357,
      "ाना,": 7358,
      "▁वर्गीकृत": 7359,
      "ग्न": 7360,
      "▁कुं": 7361,
      "▁धु": 7362,
      "▁डिज़ाइन": 7363,
      "सेस": 7364,
      "भद्र": 7365,
      "▁कीट": 7366,
      "्ती": 7367,
      "▁वैष्ण": 7368,
      "▁खेलने": 7369,
      "▁अफग": 7370,
      "▁शास्त्री": 7371,
      "▁अनुयायी": 7372,
      "▁मजबूर": 7373,
      "ेस्ट": 7374,
      "▁हार्ड": 7375,
      "▁25.45": 7376,
      "▁खूबसूरत": 7377,
      "रेख": 7378,
      "▁बातों": 7379,
      "▁आवश्यकताओं": 7380,
      "▁श्लोक": 7381,
      "▁हार्": 7382,
      "▁साव": 7383,
      "▁संसाधनों": 7384,
      "▁वास्तुकला": 7385,
      "s,": 7386,
      "▁आंख": 7387,
      "▁द्वि": 7388,
      "▁माँग": 7389,
      "▁रिश्त": 7390,
      "▁it": 7391,
      "▁उद्घाटन": 7392,
      "▁सहयोगी": 7393,
      "▁जवाहर": 7394,
      "▁उपमहाद्वीप": 7395,
      "विन": 7396,
      "ुप्त": 7397,
      "▁उद्यम": 7398,
      "पुट": 7399,
      "▁खाँ": 7400,
      "णक": 7401,
      "▁इरा": 7402,
      "▁बदलने": 7403,
      "▁मेरठ": 7404,
      "देवी": 7405,
      "ग्ध": 7406,
      "▁at": 7407,
      "▁वाद": 7408,
      "▁सकता।": 7409,
      "▁उत्तरदाय": 7410,
      "मस": 7411,
      "हाट": 7412,
      "राष्ट्र": 7413,
      "▁प्रतिर": 7414,
      "▁गिरावट": 7415,
      "▁कैप": 7416,
      "▁वोट": 7417,
      "▁पीठ": 7418,
      "▁81.85": 7419,
      "▁55": 7420,
      "▁कृष्णा": 7421,
      "▁आश्चर्य": 7422,
      "▁भीड़": 7423,
      "▁सबूत": 7424,
      "▁विश्वयुद्ध": 7425,
      "▁चां": 7426,
      "ास्ट": 7427,
      "▁अक्षांश": 7428,
      "▁प्रणालियों": 7429,
      "रिव": 7430,
      "▁नमक": 7431,
      "▁संगठित": 7432,
      "▁हड्ड": 7433,
      "ind": 7434,
      "▁St": 7435,
      "▁प्रतिद्वंद": 7436,
      "र्मन": 7437,
      "▁वाष्प": 7438,
      "ारी,": 7439,
      "▁टीमों": 7440,
      "▁खबर": 7441,
      "ार्थियों": 7442,
      "▁पहच": 7443,
      "▁बातचीत": 7444,
      "व्यों": 7445,
      "▁समेत": 7446,
      "म्‍": 7447,
      "▁लिया,": 7448,
      "▁गैर-": 7449,
      "▁थीं,": 7450,
      "▁हेर": 7451,
      "▁मुताबिक": 7452,
      "▁घटक": 7453,
      "गीर": 7454,
      "ंकिंग": 7455,
      "▁मतभेद": 7456,
      "▁y": 7457,
      "▁न्यूजी": 7458,
      "▁चौध": 7459,
      "▁संसदीय": 7460,
      "मां": 7461,
      "स्तु": 7462,
      "▁नामकरण": 7463,
      "▁पक्षियों": 7464,
      "र्वे": 7465,
      "न्दा": 7466,
      "्रेम": 7467,
      "▁गतिविधि": 7468,
      "▁मारा": 7469,
      "▁अनुमानित": 7470,
      "ुब": 7471,
      "▁मुरादाबाद,": 7472,
      "▁वर्मा": 7473,
      "▁3.": 7474,
      "▁जातियाँ": 7475,
      "▁स्वायत्त": 7476,
      "्द": 7477,
      "▁खुर": 7478,
      "▁गिरफ्तार": 7479,
      "▁तस्वी": 7480,
      "राइ": 7481,
      "▁छिप": 7482,
      "सो": 7483,
      "▁छत": 7484,
      "▁बहर": 7485,
      "राग": 7486,
      "ष्‍": 7487,
      "▁आस्ट्र": 7488,
      "▁पृथक्": 7489,
      "रेन": 7490,
      "▁ह्र": 7491,
      "▁खतरा": 7492,
      "▁}": 7493,
      "▁औरंग": 7494,
      "▁डेल": 7495,
      "▁चैम्पियनशिप": 7496,
      "▁1920": 7497,
      "▁ओज": 7498,
      "▁निचले": 7499,
      "ौरा": 7500,
      "▁भर्ती": 7501,
      "▁जीवाश्म": 7502,
      "▁चौथी": 7503,
      "▁वन्य": 7504,
      "▁निकलती": 7505,
      "ोसी": 7506,
      "▁निकालने": 7507,
      "▁पढ़ने": 7508,
      "▁थोड़ी": 7509,
      "▁रखती": 7510,
      "-से": 7511,
      "और": 7512,
      "▁कर,": 7513,
      "बीन": 7514,
      "ोवर": 7515,
      "▁पदों": 7516,
      "▁लक्ष्म": 7517,
      "ack": 7518,
      "▁जीवाणु": 7519,
      "▁नाय": 7520,
      "▁उपास": 7521,
      "▁ऋष": 7522,
      "▁रिकार्ड": 7523,
      "▁उपभोक्ता": 7524,
      "चन्द्र": 7525,
      "▁श्राव": 7526,
      "▁पायी": 7527,
      "▁नरेश": 7528,
      "▁||": 7529,
      "▁अवै": 7530,
      "ोपी": 7531,
      "▁बोलते": 7532,
      "▁मूल्यांकन": 7533,
      "▁कच्च": 7534,
      "▁पंख": 7535,
      "▁रत्न": 7536,
      "क्षणिक": 7537,
      "▁नोबेल": 7538,
      "-नि": 7539,
      "▁दर्शाया": 7540,
      "ich": 7541,
      "▁रुद्र": 7542,
      "▁अध्यय": 7543,
      "▁फैले": 7544,
      "जरी": 7545,
      "▁संव": 7546,
      "▁छंद": 7547,
      "▁जीते": 7548,
      "▁पहुंचने": 7549,
      "▁ग्राहकों": 7550,
      "▁है?": 7551,
      "▁जमी": 7552,
      "▁मुद्द": 7553,
      "न्दन": 7554,
      "▁मलया": 7555,
      "क्रामक": 7556,
      "ीर": 7557,
      "▁हाव": 7558,
      "▁रॉबर्ट": 7559,
      "ॉग": 7560,
      "ज़ों": 7561,
      "▁अन्ना": 7562,
      "▁सार्व": 7563,
      "ूड": 7564,
      "▁रुक": 7565,
      "70": 7566,
      "ore": 7567,
      "▁निज": 7568,
      "▁सेवाएं": 7569,
      "▁आकर्षक": 7570,
      "▁X": 7571,
      "▁नाइ": 7572,
      "▁पूर्ति": 7573,
      "▁भागीद": 7574,
      "▁पटेल": 7575,
      "▁ग्ला": 7576,
      "▁निष": 7577,
      "▁1972": 7578,
      "ph": 7579,
      "▁मुज": 7580,
      "▁व्यवस्थित": 7581,
      "▁65": 7582,
      "▁बी.आर.टी.एस": 7583,
      "ोलॉजी": 7584,
      "-20": 7585,
      "्याम": 7586,
      "▁अंतर्": 7587,
      "▁कथन": 7588,
      "▁खि": 7589,
      "▁एकता": 7590,
      "▁ग्रेट": 7591,
      "-भिन्न": 7592,
      "▁विघ": 7593,
      "▁होनी": 7594,
      "स्टिक": 7595,
      "▁गुड़": 7596,
      "▁होगा,": 7597,
      "▁चलाया": 7598,
      "▁दौड़": 7599,
      "ण्व": 7600,
      "▁तराई": 7601,
      "▁समग्र": 7602,
      "▁फा": 7603,
      "▁सन्‌": 7604,
      "▁रहे।\n": 7605,
      "▁अद्भुत": 7606,
      "काने": 7607,
      "▁मज़": 7608,
      "▁|ट": 7609,
      "▁तालाब": 7610,
      "▁धातुओं": 7611,
      "ect": 7612,
      "▁उत्सर्जन": 7613,
      "▁सेल्स": 7614,
      "▁उपरांत": 7615,
      "▁शाखाओं": 7616,
      "▁मापन": 7617,
      "कड़ों": 7618,
      "▁हेड": 7619,
      "▁भरी": 7620,
      "▁फें": 7621,
      "▁48": 7622,
      "▁लाइसेंस": 7623,
      "\".": 7624,
      "▁कणों": 7625,
      "▁भंग": 7626,
      "2\n": 7627,
      "▁आह": 7628,
      "▁'ब": 7629,
      "हासन": 7630,
      "▁अहि": 7631,
      "▁संवैधानिक": 7632,
      "▁सौंदर्य": 7633,
      "ड्र": 7634,
      "▁]": 7635,
      "▁‎": 7636,
      "स्टन": 7637,
      "▁1984": 7638,
      "▁मजरा": 7639,
      "▁स्मिथ": 7640,
      "ber": 7641,
      "▁माय": 7642,
      "ology": 7643,
      "केल": 7644,
      "▁भारतीयों": 7645,
      "▁1965": 7646,
      "▁सम्प्रदाय": 7647,
      "▁ऐल्": 7648,
      "▁ऑक्स": 7649,
      "▁चीज": 7650,
      "▁अर्जित": 7651,
      "ive": 7652,
      "▁नेपाली": 7653,
      "▁दाव": 7654,
      "▁खिल": 7655,
      "ेंगे।": 7656,
      "▁ऑप": 7657,
      "▁आवृत्ति": 7658,
      "our": 7659,
      "क्रमित": 7660,
      "▁नगरों": 7661,
      "ोई": 7662,
      "▁मेला": 7663,
      "▁वध": 7664,
      "▁बताता": 7665,
      "गाँव": 7666,
      "▁बोर": 7667,
      "▁छुट": 7668,
      "▁असामान्य": 7669,
      "▁आस-पास": 7670,
      "▁शुल्क": 7671,
      "▁रियासत": 7672,
      "-सी": 7673,
      "▁जाग": 7674,
      "▁विशेषताओं": 7675,
      "▁1975": 7676,
      "▁पंचायत": 7677,
      "▁मनोवैज्ञानिक": 7678,
      "कार,": 7679,
      "▁मूलतः": 7680,
      "▁आधे": 7681,
      "तू": 7682,
      "ial": 7683,
      "▁मानने": 7684,
      "निष्ठ": 7685,
      "▁मुख्यत:": 7686,
      "46": 7687,
      "▁चाय": 7688,
      "▁विधियों": 7689,
      "▁स्रोतों": 7690,
      "▁उन्नति": 7691,
      "▁उपर्": 7692,
      "▁बाधा": 7693,
      "▁विद": 7694,
      "▁टॉ": 7695,
      "▁प्रभु": 7696,
      "वाहा": 7697,
      "▁Al": 7698,
      "▁रिव": 7699,
      "नाई": 7700,
      "ावि": 7701,
      "▁फ़ॉ": 7702,
      "्युन": 7703,
      "▁नीतियों": 7704,
      "जीत": 7705,
      "ियम,": 7706,
      "▁स्वस्थ": 7707,
      "▁मैक्स": 7708,
      "ंगाबाद": 7709,
      "▁78°0": 7710,
      "▁गिनी": 7711,
      "विश्व": 7712,
      "▁मजदूर": 7713,
      "▁राजी": 7714,
      "▁स्क्रीन": 7715,
      "▁परिकल": 7716,
      "▁इनसे": 7717,
      "▁जोध": 7718,
      "▁भारत,": 7719,
      "▁कार्रवाई": 7720,
      "▁सीरीज": 7721,
      "▁महाकाव्य": 7722,
      "▁संपादक": 7723,
      "▁उल्ल": 7724,
      "▁मॉड": 7725,
      "▁पहाड़ियों": 7726,
      "-विज्ञान": 7727,
      "कारा": 7728,
      "▁चित्रित": 7729,
      "▁भाषण": 7730,
      "ंठ": 7731,
      "ुद्दीन": 7732,
      "▁बेन": 7733,
      "▁सुग": 7734,
      "▁प्रवाहित": 7735,
      "▁आयी": 7736,
      "▁घोरी": 7737,
      "्ये": 7738,
      "▁डिप": 7739,
      "▁33": 7740,
      "▁किए।": 7741,
      "▁अनुरोध": 7742,
      "▁मुम्बई": 7743,
      "▁सवाल": 7744,
      "▁नेत्र": 7745,
      "प्रस": 7746,
      "▁बॉलीवुड": 7747,
      "▁समुदायों": 7748,
      "▁हैरी": 7749,
      "▁खर": 7750,
      "भीत": 7751,
      "एँ,": 7752,
      "▁प्रचलन": 7753,
      "▁यात्रियों": 7754,
      "▁टक": 7755,
      "▁कूट": 7756,
      "all": 7757,
      "▁क्रियाओं": 7758,
      "▁तीव्रता": 7759,
      "ाजील": 7760,
      "▁निरी": 7761,
      "▁घायल": 7762,
      "▁दशकों": 7763,
      "ical": 7764,
      "com": 7765,
      "▁उर्व": 7766,
      "ानी,": 7767,
      "▁हिमा": 7768,
      "▁दीवारों": 7769,
      "21": 7770,
      "ने,": 7771,
      "▁मैथ": 7772,
      "▁कौश": 7773,
      "▁परिवारों": 7774,
      "▁पारिस्थित": 7775,
      ".81": 7776,
      "▁फ्री": 7777,
      "▁साँ": 7778,
      "ार्ज": 7779,
      "▁1977": 7780,
      "▁तद": 7781,
      "▁जंगलों": 7782,
      "▁पेरिस": 7783,
      "▁इंदिरा": 7784,
      "ew": 7785,
      "▁विश्वविद्यालयों": 7786,
      "▁बलि": 7787,
      "▁गोपाल": 7788,
      "▁फ़ारसी": 7789,
      "▁ऑफिस": 7790,
      "▁चंडीगढ़": 7791,
      "▁इंस": 7792,
      "▁व्यापारी": 7793,
      "▁समन्वय": 7794,
      "▁सिंचाई": 7795,
      "चकों": 7796,
      "ेशिया": 7797,
      "कर्षण": 7798,
      "▁तुलसी": 7799,
      "▁टिप्पणी": 7800,
      "500": 7801,
      "ेंटी": 7802,
      "▁दलों": 7803,
      "कीर्ण": 7804,
      "▁कारकों": 7805,
      "▁पत्थ": 7806,
      "▁दांत": 7807,
      "▁पहुँचने": 7808,
      "▁बारी": 7809,
      "▁निश्चय": 7810,
      "-य": 7811,
      "द्धा": 7812,
      "ww": 7813,
      "▁कों": 7814,
      "र्मी": 7815,
      "▁1986": 7816,
      "▁1952": 7817,
      "▁दें": 7818,
      "▁माया": 7819,
      "▁ग्रुप": 7820,
      "▁कप्तान": 7821,
      "फे": 7822,
      "▁नंद": 7823,
      "▁नाप": 7824,
      "▁चौथे": 7825,
      "मिति": 7826,
      "▁बावजूद,": 7827,
      "▁सांसद": 7828,
      "▁भूल": 7829,
      "▁जोड़ी": 7830,
      "▁कुंड": 7831,
      "▁वैध": 7832,
      "▁झा": 7833,
      "▁रचनाएँ": 7834,
      "▁भिन्नता": 7835,
      "▁फ्लोर": 7836,
      "▁नाल": 7837,
      "नाल": 7838,
      "▁मार्क": 7839,
      "▁com": 7840,
      "▁प्रायद्वीप": 7841,
      "▁चुंबकीय": 7842,
      "▁सापेक्ष": 7843,
      "▁1967": 7844,
      "गांव": 7845,
      "▁बचाव": 7846,
      "▁खली": 7847,
      "▁ब्रांड": 7848,
      "▁चित्रों": 7849,
      "▁वयस्क": 7850,
      "▁काठ": 7851,
      "▁गाँव,": 7852,
      "▁अनुसरण": 7853,
      "िस्था": 7854,
      "नीस": 7855,
      "▁स्ट्रीट": 7856,
      ".,": 7857,
      "▁सज": 7858,
      "▁देवर": 7859,
      "▁श्रेणियों": 7860,
      "▁वंशज": 7861,
      "▁थाई": 7862,
      "▁86": 7863,
      "नायक": 7864,
      "▁जानने": 7865,
      "▁स्वीकृति": 7866,
      "▁समक्ष": 7867,
      "िम्प": 7868,
      "▁बाँध": 7869,
      "▁यूनिवर्सिटी": 7870,
      "ff": 7871,
      "▁अगली": 7872,
      "▁उपर्युक्त": 7873,
      "▁घात": 7874,
      "वाने": 7875,
      "▁गहरे": 7876,
      "▁400": 7877,
      "▁बना।": 7878,
      "चालित": 7879,
      "▁हड़": 7880,
      "▁जनपद": 7881,
      "▁मौखिक": 7882,
      "▁क्रांतिकारी": 7883,
      "▁न्यूजीलैंड": 7884,
      "दिष्ट": 7885,
      "▁स्टॉक": 7886,
      "▁76": 7887,
      "▁लखी": 7888,
      "▁ज़ि": 7889,
      "▁बातें": 7890,
      "▁परिश": 7891,
      "▁34": 7892,
      "▁मनु": 7893,
      "▁लोकतंत्र": 7894,
      "थल": 7895,
      "▁नान": 7896,
      ".18": 7897,
      "▁1957": 7898,
      "▁अल्लाह": 7899,
      "ment": 7900,
      "▁बें": 7901,
      "न्ग": 7902,
      "▁नामित": 7903,
      "▁विटामिन": 7904,
      "▁आनुवंशिक": 7905,
      "किक": 7906,
      "रप": 7907,
      "▁सब्": 7908,
      "▁प्रोटोक": 7909,
      "▁अस्थायी": 7910,
      "90": 7911,
      "▁शती": 7912,
      "▁निपट": 7913,
      "▁कहलाती": 7914,
      "▁बनायी": 7915,
      "▁'आ": 7916,
      "▁लगी।": 7917,
      "▁अंडे": 7918,
      "▁दाम": 7919,
      "▁दमन": 7920,
      "▁खज": 7921,
      "▁आखिरी": 7922,
      "▁नक्ष": 7923,
      "▁प्रशांत": 7924,
      "नेल": 7925,
      "▁देह": 7926,
      "▁गणतंत्र": 7927,
      "▁चावल": 7928,
      "▁संतुलन": 7929,
      "।।": 7930,
      "▁मिर्जा": 7931,
      "फोर्निया": 7932,
      "किम": 7933,
      "्य,": 7934,
      "वर्धन": 7935,
      "▁ई.पू": 7936,
      "▁ग्रहों": 7937,
      "▁उड़ी": 7938,
      "▁पार्व": 7939,
      "्वामी": 7940,
      "▁निम": 7941,
      "▁अभिक्रिया": 7942,
      "ोटी": 7943,
      "▁लाखों": 7944,
      "तियां": 7945,
      "▁कवर": 7946,
      "▁का,": 7947,
      "हराया": 7948,
      "▁ज्वालामुखी": 7949,
      "▁\"प्र": 7950,
      "▁मेले": 7951,
      "▁विश्वविद्यालय,": 7952,
      "▁गीतों": 7953,
      "▁मुद्दों": 7954,
      "▁प्रतिवर्ष": 7955,
      "▁खिताब": 7956,
      "▁मुकाबले": 7957,
      "▁अनुसू": 7958,
      "▁प्रतिदिन": 7959,
      "▁|स": 7960,
      "ोरस": 7961,
      "मिक्स": 7962,
      "▁सफलतापूर्वक": 7963,
      "▁1857": 7964,
      "▁समय,": 7965,
      "▁श्रीकृष्ण": 7966,
      "▁छिद्र": 7967,
      "पूर": 7968,
      "▁मरी": 7969,
      "▁मोटे": 7970,
      "▁आदिवासी": 7971,
      "▁जरूरी": 7972,
      "▁स्पर्श": 7973,
      "▁भिन्न-भिन्न": 7974,
      "▁उत्साह": 7975,
      "▁प्रीमियर": 7976,
      "▁एकड़": 7977,
      "▁इक": 7978,
      "ैम": 7979,
      "ong": 7980,
      "▁सड़कों": 7981,
      "▁ऊँचे": 7982,
      "▁पुराणों": 7983,
      "▁रिचर्ड": 7984,
      "गुरु": 7985,
      "▁कन": 7986,
      "▁सोड": 7987,
      "ीनगर": 7988,
      "▁टाइ": 7989,
      "▁एजेंसी": 7990,
      "हो": 7991,
      "▁प्रतिस्पर्धा": 7992,
      "\"।": 7993,
      "जान": 7994,
      "▁पढ": 7995,
      "▁प्रबन्ध": 7996,
      "▁चंप": 7997,
      "▁चरणों": 7998,
      "▁मधुम": 7999,
      "ैस": 8000,
      "▁कार्ल": 8001,
      "▁महर्षि": 8002,
      "▁मारने": 8003,
      "34": 8004,
      "▁दिग": 8005,
      "▁मछल": 8006,
      "▁कार्ट": 8007,
      "end": 8008,
      "▁अखिल": 8009,
      "ल्‍": 8010,
      "▁कहे": 8011,
      "▁कथाओं": 8012,
      "चाप": 8013,
      "▁निकला": 8014,
      "▁कोष": 8015,
      "मान्य": 8016,
      "▁38": 8017,
      "▁रखकर": 8018,
      "्‍व": 8019,
      "▁मेरा": 8020,
      "▁बाबू": 8021,
      "▁सहमति": 8022,
      "▁गहन": 8023,
      "▁ex": 8024,
      "▁बुलाया": 8025,
      "ran": 8026,
      "्पनिक": 8027,
      "▁नाट्य": 8028,
      "▁de": 8029,
      "िबंधीय": 8030,
      "▁अच": 8031,
      "कम": 8032,
      "्तन": 8033,
      "▁चित्त": 8034,
      "ोनें": 8035,
      "▁मलयालम": 8036,
      "-त": 8037,
      "▁मन्त्र": 8038,
      "▁मानद": 8039,
      "▁नागपुर": 8040,
      "▁परिणामों": 8041,
      "शहर": 8042,
      "▁अंचल": 8043,
      "िसन": 8044,
      "ले,": 8045,
      "ंगों": 8046,
      "िवी": 8047,
      "▁आपात": 8048,
      "▁कोड:": 8049,
      "▁एकत्रित": 8050,
      "▁मीन": 8051,
      "▁अंज": 8052,
      "▁औरंगाबाद": 8053,
      "▁बिल्कुल": 8054,
      "▁शिर": 8055,
      "▁टाइप": 8056,
      "▁उक्त": 8057,
      "▁बहि": 8058,
      "▁जनजाति": 8059,
      "▁लगाए": 8060,
      "▁1987": 8061,
      "▁अष्ट": 8062,
      "007": 8063,
      "▁मतदान": 8064,
      "olor": 8065,
      "▁हुसैन": 8066,
      "ैत": 8067,
      "▁अन्न": 8068,
      "्तिक": 8069,
      "गा,": 8070,
      "▁27.5": 8071,
      "▁राजनीतिज्ञ": 8072,
      "ानि": 8073,
      "▁तारी": 8074,
      "-अप": 8075,
      "▁गठित": 8076,
      "▁An": 8077,
      "▁नाटकों": 8078,
      "▁बाढ़": 8079,
      "▁शाका": 8080,
      "वंत": 8081,
      "नेशनल": 8082,
      "▁पीली": 8083,
      "परेशन": 8084,
      "▁1973": 8085,
      "▁गिन": 8086,
      "▁1988": 8087,
      "▁24.81": 8088,
      "▁मोक्ष": 8089,
      "ांकित": 8090,
      "▁कोलंब": 8091,
      "▁विवेचन": 8092,
      "▁स्पेक्ट": 8093,
      "▁मूल्यों": 8094,
      "▁शुभ": 8095,
      "▁आयात": 8096,
      "▁मिसाइल": 8097,
      "▁ग्वाल": 8098,
      "मोर": 8099,
      "▁मक्का": 8100,
      "▁तरह,": 8101,
      "▁झू": 8102,
      "▁पेय": 8103,
      "▁उत्तेज": 8104,
      "▁लिखते": 8105,
      "▁विपरीत,": 8106,
      "▁शासित": 8107,
      "▁निरूप": 8108,
      "▁स्नात": 8109,
      "बुल": 8110,
      "हद": 8111,
      "▁रेट": 8112,
      "▁कालेज": 8113,
      "षेक": 8114,
      "केश": 8115,
      "▁लेखों": 8116,
      "▁द्वीपसमूह": 8117,
      "▁ऊँची": 8118,
      "▁बिलियन": 8119,
      "ोराइड": 8120,
      "ight": 8121,
      "▁उड़ीसा": 8122,
      "e,": 8123,
      "्थ": 8124,
      "पुरम": 8125,
      "▁इनको": 8126,
      "▁प्रमाणित": 8127,
      "▁प्रकरण": 8128,
      "▁तटीय": 8129,
      "्टोर": 8130,
      "▁उतार": 8131,
      "▁विलुप्त": 8132,
      "▁पृष्ठभूमि": 8133,
      "▁प्रजा": 8134,
      "▁मार्क्स": 8135,
      "▁जुल": 8136,
      "▁फिरोज": 8137,
      "▁प्रतिष्ठा": 8138,
      "▁कब्र": 8139,
      "▁ताज": 8140,
      "▁कमाई": 8141,
      "▁ड्यू": 8142,
      "▁रोजगार": 8143,
      "द्युत": 8144,
      "▁लड़की": 8145,
      "▁गिरजा": 8146,
      "▁गार": 8147,
      "▁सेमी": 8148,
      "▁1985": 8149,
      "▁सरकारों": 8150,
      "▁ई.पू.": 8151,
      "▁बट": 8152,
      "▁नकारात्मक": 8153,
      "स्पद": 8154,
      "कली": 8155,
      "▁\\": 8156,
      "▁सिंगा": 8157,
      "▁रंगों": 8158,
      "▁79.4": 8159,
      "धित": 8160,
      "▁एस.": 8161,
      "▁वापसी": 8162,
      "▁फेफ": 8163,
      "▁जोधपुर": 8164,
      "▁आजम": 8165,
      ".50": 8166,
      "गेट": 8167,
      "्विन": 8168,
      "ुक्त": 8169,
      "▁अचान": 8170,
      "स्मान": 8171,
      "▁न्यूटन": 8172,
      "गोरी": 8173,
      "▁एण्ड": 8174,
      "▁अपन": 8175,
      "▁उतना": 8176,
      "▁प्रक्षेपण": 8177,
      "▁वेतन": 8178,
      "प्रकाश": 8179,
      "▁पटक": 8180,
      "▁है|": 8181,
      "▁राजने": 8182,
      "▁हिट": 8183,
      "▁85°": 8184,
      "▁स्तरों": 8185,
      "▁काल्पनिक": 8186,
      "ड़ाई": 8187,
      "▁मेन": 8188,
      "▁वाक": 8189,
      "फोन": 8190,
      "सनीय": 8191,
      "क्सन": 8192,
      "▁भागीदारी": 8193,
      "▁गेह": 8194,
      "याम": 8195,
      "▁मैसूर": 8196,
      "ure": 8197,
      "गमन": 8198,
      "▁im": 8199,
      "्टिन": 8200,
      "▁पड़ते": 8201,
      "▁अन्व": 8202,
      "▁अद्वितीय": 8203,
      "ेब": 8204,
      "▁वनों": 8205,
      "▁तत्त्व": 8206,
      "ोक्": 8207,
      "▁वायुमंडल": 8208,
      "▁आचार": 8209,
      "▁कार्यान": 8210,
      "▁पीटर": 8211,
      "गोलीय": 8212,
      "▁मानता": 8213,
      "▁कमरे": 8214,
      "▁बिता": 8215,
      "▁अनुच्छेद": 8216,
      "▁धर्मों": 8217,
      "▁प्रतिस्था": 8218,
      "32": 8219,
      "▁डाउन": 8220,
      "▁सहमत": 8221,
      "्नों": 8222,
      "▁मौका": 8223,
      "▁फूलों": 8224,
      "पेश": 8225,
      "▁इब्": 8226,
      "▁राजशाही": 8227,
      "▁1940": 8228,
      "▁संशोधित": 8229,
      "▁लेखा": 8230,
      "▁जानवर": 8231,
      "▁केन्द्रित": 8232,
      "▁हो।\n": 8233,
      "▁एर": 8234,
      "न्ज": 8235,
      "▁रहे,": 8236,
      "ख़्त": 8237,
      "▁कब": 8238,
      "▁डेन": 8239,
      "▁सटीक": 8240,
      "▁इल": 8241,
      "▁सर्विस": 8242,
      "▁संपादन": 8243,
      "▁गुजराती": 8244,
      "▁भिक्ष": 8245,
      "▁कुत्त": 8246,
      "स्ते": 8247,
      "धिकरण": 8248,
      "87": 8249,
      "पेट": 8250,
      "▁मोड़": 8251,
      "▁इज़": 8252,
      "▁भव": 8253,
      "▁स्वदेश": 8254,
      "istan": 8255,
      "बारी": 8256,
      "्यूम": 8257,
      "▁रोल": 8258,
      "▁दुर्गा": 8259,
      "▁आखिर": 8260,
      "▁भारती": 8261,
      "▁अनुक्रम": 8262,
      "कात": 8263,
      "▁बहस": 8264,
      "ish": 8265,
      "-बार": 8266,
      "▁खतरे": 8267,
      "भुत्व": 8268,
      "▁अचानक": 8269,
      "फिक": 8270,
      "मूल": 8271,
      "ियाना": 8272,
      "जीरिया": 8273,
      "▁ईसवी": 8274,
      "ोबा": 8275,
      "▁एक-द": 8276,
      "वात": 8277,
      "ूर्ति": 8278,
      "▁सदस्यता": 8279,
      "▁इंजीनिय": 8280,
      "▁सृजन": 8281,
      "▁बैक्ट": 8282,
      "ब्लिक": 8283,
      "ंघन": 8284,
      "▁गर्मियों": 8285,
      "▁सिंहासन": 8286,
      "▁पैसे": 8287,
      "▁रेख": 8288,
      "▁सिंह,": 8289,
      "स्थिति": 8290,
      "▁कमांड": 8291,
      "▁दृश": 8292,
      "बेस": 8293,
      "▁संदर्भित": 8294,
      "▁नौकर": 8295,
      "▁बजट": 8296,
      "मह": 8297,
      "▁कंट": 8298,
      "▁संकल्प": 8299,
      "▁विद्यार्थी": 8300,
      "▁पोप": 8301,
      "▁वसा": 8302,
      "▁टाटा": 8303,
      "▁मेडिकल": 8304,
      "एव": 8305,
      "भ्र": 8306,
      "रू": 8307,
      "▁मर्": 8308,
      "▁अतीत": 8309,
      "िका,": 8310,
      "▁माउंट": 8311,
      "ोषक": 8312,
      "ग्वेद": 8313,
      "ड,": 8314,
      "यारी": 8315,
      "लक": 8316,
      "▁रोह": 8317,
      "▁मेह": 8318,
      "▁एडवर्ड": 8319,
      "▁खेले": 8320,
      "▁डेम": 8321,
      "▁ख्याति": 8322,
      "ितु": 8323,
      "▁अनेकों": 8324,
      "▁नाश": 8325,
      "▁पंक्ति": 8326,
      "▁भ्रूण": 8327,
      "ष्टाचार": 8328,
      "जि": 8329,
      "तांत्रिक": 8330,
      "▁तरफ़": 8331,
      "▁ऑस्ट्रेलियाई": 8332,
      "▁चौधरी": 8333,
      "86": 8334,
      "’,": 8335,
      "▁कार्यान्व": 8336,
      "डान": 8337,
      "सलों": 8338,
      "▁पच": 8339,
      "▁रात्रि": 8340,
      "ear": 8341,
      "ब्स": 8342,
      "ॉर्ट": 8343,
      "▁बास": 8344,
      "वाय": 8345,
      "▁घोड़े": 8346,
      "▁नीला": 8347,
      "▁फिलिप": 8348,
      "▁पुर्तगाली": 8349,
      "▁प्रचुर": 8350,
      "हाइड": 8351,
      "▁राजकीय": 8352,
      "▁सीधा": 8353,
      "▁जिनमे": 8354,
      "▁प्रोटोकॉल": 8355,
      "▁छोड़ने": 8356,
      "कर्म": 8357,
      "ज़ल": 8358,
      "▁अवध": 8359,
      "▁फैली": 8360,
      "▁UK": 8361,
      "▁मेट्रो*": 8362,
      "कोण": 8363,
      "्लेष": 8364,
      "▁पेशकश": 8365,
      "▁सिविल": 8366,
      "ुए": 8367,
      "▁दुस": 8368,
      "▁ट्रै": 8369,
      "▁लम्बाई": 8370,
      "▁हरी": 8371,
      "▁ग्रन्थों": 8372,
      "▁प्रभुत्व": 8373,
      "▁87": 8374,
      "▁सेनाओं": 8375,
      "▁जाए,": 8376,
      "▁ग्रेगोरी": 8377,
      "▁फ्ला": 8378,
      "▁79°": 8379,
      "▁from": 8380,
      "दायक": 8381,
      "नम": 8382,
      "▁स्वागत": 8383,
      "छा": 8384,
      "▁तन्त्र": 8385,
      "▁व्यंग": 8386,
      "▁सम्बन्धी": 8387,
      "▁मनी": 8388,
      "▁विपणन": 8389,
      "▁ब्ला": 8390,
      "▁अहमदाबाद": 8391,
      "जाबाद": 8392,
      "लपुर": 8393,
      "जेब": 8394,
      "ell": 8395,
      "▁अंड": 8396,
      "▁गाज": 8397,
      "िनो": 8398,
      "▁आराम": 8399,
      "▁रामपुर": 8400,
      "-6": 8401,
      "मेल": 8402,
      "▁एटा": 8403,
      "▁विल्सन": 8404,
      "▁समतल": 8405,
      "▁डोम": 8406,
      "▁सल्फ": 8407,
      "▁आर्क": 8408,
      "▁टि": 8409,
      "▁1969": 8410,
      "a,": 8411,
      "॥\n": 8412,
      "ामाण": 8413,
      "▁ज़मीन": 8414,
      "▁जौनपुर": 8415,
      "ry": 8416,
      "▁एसिड": 8417,
      "▁सिफार": 8418,
      "▁स्कोर": 8419,
      "▁दिवसीय": 8420,
      "▁निष्क्रिय": 8421,
      "▁ऑल": 8422,
      "▁माध्यमिक": 8423,
      "▁आनन्द": 8424,
      "▁कन्नड़": 8425,
      "ियापुर": 8426,
      "▁विधा": 8427,
      "▁जनक": 8428,
      "▁होम": 8429,
      "कटिबंधीय": 8430,
      "▁स्वतन्त्रता": 8431,
      "▁निकलता": 8432,
      "▁ईस्वी": 8433,
      "io": 8434,
      "tt": 8435,
      "▁वाद्य": 8436,
      "▁लॉर्ड": 8437,
      "भूषण": 8438,
      "▁हिर": 8439,
      "न्नी": 8440,
      "▁माइक्रोस": 8441,
      "लांट": 8442,
      "▁निगर": 8443,
      "▁वाणी": 8444,
      "▁साधना": 8445,
      "ार्कट": 8446,
      "▁हों।": 8447,
      "▁कैलिफोर्निया": 8448,
      "ीरिया": 8449,
      "▁इज": 8450,
      "▁चिन": 8451,
      "▁चमोली": 8452,
      "▁त्यो": 8453,
      "ष्कृत": 8454,
      "▁विभागों": 8455,
      "▁असली": 8456,
      "▁मोदी": 8457,
      "-ट": 8458,
      "▁करने,": 8459,
      "▁जैक": 8460,
      "▁पूर्वज": 8461,
      "▁गैले": 8462,
      "मैं": 8463,
      "▁फतेहपुर": 8464,
      "▁बलों": 8465,
      "मा,": 8466,
      "▁समर्थक": 8467,
      "▁मुनि": 8468,
      "▁पूर्वोत्तर": 8469,
      "▁भ्रष्टाचार": 8470,
      "▁रिज": 8471,
      "▁द्वारा,": 8472,
      "▁प्रकार,": 8473,
      "▁रिलीज": 8474,
      "▁लोहा": 8475,
      "▁रेगिस्तान": 8476,
      "ोसा": 8477,
      "स्तर": 8478,
      "ियां,": 8479,
      "ुख": 8480,
      "पीठ": 8481,
      "गित": 8482,
      "▁असमर्थ": 8483,
      "▁अमीर": 8484,
      "वादा": 8485,
      "▁जगहों": 8486,
      "▁किशोर": 8487,
      "▁खाद": 8488,
      "न्दी": 8489,
      "▁उठाया": 8490,
      "▁तपस्या": 8491,
      "▁के,": 8492,
      "▁एसोसिएशन": 8493,
      "▁सिफारिश": 8494,
      "भाई": 8495,
      "▁वाम": 8496,
      "▁दत्त": 8497,
      "▁जावा": 8498,
      "▁महारानी": 8499,
      "▁हों,": 8500,
      "▁गोला": 8501,
      "▁खुश": 8502,
      "-19": 8503,
      "▁ग्वालियर": 8504,
      "▁अनाव": 8505,
      "▁बार्": 8506,
      "नात": 8507,
      "ज़,": 8508,
      "▁सूत्रों": 8509,
      "ord": 8510,
      "▁होगा।\n": 8511,
      "▁चोटी": 8512,
      "▁सेल्सियस": 8513,
      "शो": 8514,
      "▁उज": 8515,
      "कार्य": 8516,
      "▁ऊंची": 8517,
      "र्ति": 8518,
      "लास": 8519,
      "▁क्षत्र": 8520,
      "बन": 8521,
      "▁चार्ट": 8522,
      "▁समावेश": 8523,
      "rit": 8524,
      "▁दंत": 8525,
      "प्रसिद्ध": 8526,
      "▁बनकर": 8527,
      "▁रोश": 8528,
      "पोल": 8529,
      "▁एयरलाइ": 8530,
      "▁इंदौर": 8531,
      "88": 8532,
      "▁ऐल": 8533,
      "▁गुरुत्वा": 8534,
      "75": 8535,
      "▁वैष्णव": 8536,
      "▁उज्ज": 8537,
      "▁इकट": 8538,
      "लीपुर": 8539,
      "▁करनेवाले": 8540,
      "▁भाज": 8541,
      "ोसिस": 8542,
      "फिया": 8543,
      "▁दुश्म": 8544,
      "▁व्युत्पन्न": 8545,
      "स्स": 8546,
      "▁प्रयोगों": 8547,
      "▁पड़ोसी": 8548,
      "▁आइंस्ट": 8549,
      "▁शही": 8550,
      "▁उपनाम": 8551,
      "पुराण": 8552,
      "निर्देश": 8553,
      "▁परे": 8554,
      "▁साझा": 8555,
      "तकों": 8556,
      "▁1979": 8557,
      "▁ऋग्वेद": 8558,
      "लग्न": 8559,
      "out": 8560,
      "श्": 8561,
      "▁he": 8562,
      "▁माला": 8563,
      "▁शिक्षक": 8564,
      "▁पर्वतों": 8565,
      "▁सलाहकार": 8566,
      "-मु": 8567,
      "-सम": 8568,
      "▁हितों": 8569,
      "ैच": 8570,
      "▁हूं": 8571,
      "▁त्रुटि": 8572,
      "रात्रि": 8573,
      "िज़ा": 8574,
      "▁थीं।\n": 8575,
      "▁हिमाचल": 8576,
      "▁आलोचकों": 8577,
      "▁चट्टानों": 8578,
      "▁कंक": 8579,
      "्‍या": 8580,
      "▁सम्पन्न": 8581,
      "▁आँख": 8582,
      "▁निषे": 8583,
      "▁भरे": 8584,
      "▁इतिहासकारों": 8585,
      "गिर": 8586,
      "▁परियोजनाओं": 8587,
      "▁लवण": 8588,
      "▁हैं.": 8589,
      "▁बलराम": 8590,
      "▁संगीतकार": 8591,
      "▁उत्तराधिकार": 8592,
      "▁अभियांत्रिकी": 8593,
      "▁केल": 8594,
      "▁|क": 8595,
      "▁अवलोक": 8596,
      "्यून": 8597,
      "▁4.": 8598,
      "▁बरेली": 8599,
      "▁सदैव": 8600,
      "▁कैलंडर": 8601,
      "डब्ल्यू": 8602,
      "▁नर्म": 8603,
      "▁सुस": 8604,
      "▁अवरोध": 8605,
      "▁वचन": 8606,
      "▁सेवान": 8607,
      "▁जोड़े": 8608,
      "▁दुर्": 8609,
      "ान्तिक": 8610,
      "▁1982": 8611,
      "▁1945": 8612,
      "▁वॉल": 8613,
      "▁गि": 8614,
      "त्पर्य": 8615,
      "▁इकाइयों": 8616,
      "▁कोटि": 8617,
      "▁बड़": 8618,
      "▁आधा": 8619,
      "▁साउथ": 8620,
      "▁प्रभावों": 8621,
      "पार": 8622,
      "▁पोषण": 8623,
      "▁\"न": 8624,
      "▁तैयारी": 8625,
      "▁साधनों": 8626,
      "▁महमूद": 8627,
      "▁मोर्": 8628,
      "टावा": 8629,
      "▁प्रतापगढ़": 8630,
      "▁इब्न": 8631,
      "हत्या": 8632,
      "▁आवेश": 8633,
      "▁गुरुद": 8634,
      "▁ब्रह्मांड": 8635,
      "ंग्ल": 8636,
      "▁चट्टान": 8637,
      "▁गणितीय": 8638,
      "▁यौगिकों": 8639,
      "रोग": 8640,
      "▁कने": 8641,
      "▁रायगढ़": 8642,
      "▁इच्छ": 8643,
      "िल्ला": 8644,
      "▁क्षेत्र,": 8645,
      "ेषण": 8646,
      "▁बौद्धिक": 8647,
      "ोदय": 8648,
      "▁विनिम": 8649,
      "▁चतुर्थ": 8650,
      "हत": 8651,
      "▁फेर": 8652,
      "▁गोवा": 8653,
      "▁खेलते": 8654,
      "▁मैंने": 8655,
      "▁निगरानी": 8656,
      "ib": 8657,
      "कू": 8658,
      "▁​": 8659,
      "▁है.\n": 8660,
      "▁कोह": 8661,
      ".सी": 8662,
      "ूनों": 8663,
      "ालन": 8664,
      "▁महावीर": 8665,
      "▁सोडियम": 8666,
      "▁सेवानिव": 8667,
      "▁न्यूज़": 8668,
      "ोत्त": 8669,
      "िलाबाद": 8670,
      "ोरेशन": 8671,
      "ज़रत": 8672,
      "ांग": 8673,
      "▁कस": 8674,
      "ोरम": 8675,
      "िवारिक": 8676,
      "▁हाइड्र": 8677,
      "▁पटना,": 8678,
      "-ल": 8679,
      "31": 8680,
      "डि": 8681,
      "▁असाधारण": 8682,
      "द्दे": 8683,
      "▁कॉर्प": 8684,
      "ूटिंग": 8685,
      "▁अध्यक्षता": 8686,
      "▁सिकन्दरपुर": 8687,
      "▁औरंगजेब": 8688,
      "ोरेट": 8689,
      "▁वां": 8690,
      "▁प्रवि": 8691,
      "▁खुदाई": 8692,
      "▁खासकर": 8693,
      "▁क्रे": 8694,
      "विद्या": 8695,
      "▁मैग": 8696,
      "▁गईं": 8697,
      "गी,": 8698,
      "▁चालक": 8699,
      "रब": 8700,
      "▁ऑस्ट": 8701,
      "गा।\n": 8702,
      "▁पटकथा": 8703,
      "▁लाई": 8704,
      "▁भाप": 8705,
      "ग्रा": 8706,
      "▁आतंकवाद": 8707,
      "▁बुरी": 8708,
      "▁प्रतिबि": 8709,
      "ach": 8710,
      "▁उद्देश्यों": 8711,
      "▁तत्काल": 8712,
      "▁अवसरों": 8713,
      "▁अवैध": 8714,
      "की,": 8715,
      "▁व्यंज": 8716,
      "▁भेजे": 8717,
      "▁लुई": 8718,
      "▁उपजिला": 8719,
      "रेन्द्र": 8720,
      "▁तात्पर्य": 8721,
      "▁हंस": 8722,
      "▁फाय": 8723,
      "▁चौक": 8724,
      "▁प्रदूषण": 8725,
      "▁पाइ": 8726,
      "▁अले": 8727,
      "▁दाँ": 8728,
      "▁इताल": 8729,
      "लाइट": 8730,
      "प्पल": 8731,
      "▁वेदों": 8732,
      "▁पुरातत्व": 8733,
      "ाइटी": 8734,
      "▁सिप": 8735,
      "▁आपकी": 8736,
      "▁मार्शल": 8737,
      "▁जरिए": 8738,
      "▁साक्ष्य": 8739,
      "▁अल्पसंख्यक": 8740,
      "▁तिब्बती": 8741,
      "▁प्रतिपादन": 8742,
      "▁अभिलेख": 8743,
      "यंत्र": 8744,
      "▁सती": 8745,
      "प्राय": 8746,
      "गीत": 8747,
      "▁रथ": 8748,
      "▁उग्र": 8749,
      "क्षकों": 8750,
      "▁बाध्य": 8751,
      "▁वात": 8752,
      "▁विहार": 8753,
      "▁ढाका": 8754,
      "▁1981": 8755,
      "▁श्वसन": 8756,
      "बोध": 8757,
      "ियांग": 8758,
      "▁ईंट": 8759,
      "-समय": 8760,
      "▁तकनीकों": 8761,
      "▁भावनाओं": 8762,
      "▁प्रारम्भिक": 8763,
      "▁रहा।\n": 8764,
      "▁समाजवादी": 8765,
      "▁जादू": 8766,
      "सेल": 8767,
      "▁खगोलीय": 8768,
      "▁गुल": 8769,
      "▁लॉस": 8770,
      "▁अफ्रीका\n": 8771,
      "▁भेजने": 8772,
      "ासा": 8773,
      "▁धरो": 8774,
      "▁आपसी": 8775,
      "▁परिमाण": 8776,
      "▁बागेश्वर": 8777,
      ".com": 8778,
      "यो": 8779,
      "▁वेश": 8780,
      "▁फेल": 8781,
      "▁1964": 8782,
      "यंकर": 8783,
      "▁त्रिकोण": 8784,
      "▁पक्षों": 8785,
      "चक्र": 8786,
      "▁ग्यार": 8787,
      "▁छप": 8788,
      "रोधी": 8789,
      "▁उल्लंघन": 8790,
      "4′E": 8791,
      "िकाएँ": 8792,
      "▁ब्राजील": 8793,
      "नियां": 8794,
      "▁स्कूलों": 8795,
      "▁007": 8796,
      "▁सकें": 8797,
      "गुण": 8798,
      "▁अब्दुल": 8799,
      "▁टु": 8800,
      "▁फ़र": 8801,
      "▁सदियों": 8802,
      "▁प्रशंस": 8803,
      "▁परिपथ": 8804,
      "▁तलाश": 8805,
      "ॉक्स": 8806,
      "▁निया": 8807,
      "▁छत्र": 8808,
      "ens": 8809,
      "दारों": 8810,
      "▁विकार": 8811,
      "▁निकले": 8812,
      "ंटार्कट": 8813,
      "▁खाली": 8814,
      "▁सूचित": 8815,
      "शेखर": 8816,
      "ुणा": 8817,
      "▁इंट": 8818,
      "▁राणा": 8819,
      "न्तर": 8820,
      "▁आमंत्रित": 8821,
      "▁संभाल": 8822,
      "▁अपील": 8823,
      "▁अतएव": 8824,
      "हें": 8825,
      "▁आग्रह": 8826,
      "दी,": 8827,
      "▁चित्रकूट": 8828,
      "▁अतिरिक्त,": 8829,
      "वाहाटी": 8830,
      "▁शिया": 8831,
      "▁39": 8832,
      "तें": 8833,
      "स्का": 8834,
      "▁रूपांतरण": 8835,
      "साँचा:": 8836,
      "वेग": 8837,
      "▁1983": 8838,
      "▁डॉक्टर": 8839,
      "▁भुजा": 8840,
      ".22": 8841,
      "▁हज़रत": 8842,
      "▁आइस": 8843,
      "▁निर्दिष्ट": 8844,
      "▁बनार": 8845,
      "▁दिल्ली,": 8846,
      "ॉर्म": 8847,
      "▁चिक": 8848,
      "रीबी": 8849,
      "▁दी,": 8850,
      "▁गाड़ी": 8851,
      "नागरी": 8852,
      "▁ऊतक": 8853,
      "त्विक": 8854,
      "▁दुकान": 8855,
      "▁पीने": 8856,
      "▁1976": 8857,
      "▁1949": 8858,
      "▁आना": 8859,
      "65": 8860,
      "ँह": 8861,
      "▁\t": 8862,
      "▁पला": 8863,
      "ियाबाद": 8864,
      "दीप": 8865,
      "▁सर्प": 8866,
      "▁तस्वीर": 8867,
      "▁झांसी": 8868,
      "▁उन्नीस": 8869,
      "▁हटाने": 8870,
      "▁नाभिकीय": 8871,
      "▁धरोहर": 8872,
      "▁भै": 8873,
      "▁स्फ": 8874,
      "▁अपितु": 8875,
      "▁पात्रों": 8876,
      "▁पूँ": 8877,
      "▁पर्वतीय": 8878,
      "पुत्र": 8879,
      "बूत": 8880,
      "▁भयंकर": 8881,
      "▁औषधि": 8882,
      "लैण्ड": 8883,
      "▁सैकड़ों": 8884,
      "▁संकलन": 8885,
      "▁स्त्रियों": 8886,
      "मांसा": 8887,
      "मोद": 8888,
      "▁इसपर": 8889,
      "▁संक्रमित": 8890,
      "रीन": 8891,
      "▁ऑट": 8892,
      "▁20वीं": 8893,
      "▁सोना": 8894,
      "▁खोला": 8895,
      "▁रावण": 8896,
      "▁प्रोत्साहन": 8897,
      "▁निशान": 8898,
      "▁आवासी": 8899,
      "▁मीर": 8900,
      "▁1978": 8901,
      "वृत्ति": 8902,
      "▁चट": 8903,
      "िटर": 8904,
      "ोर्न": 8905,
      "▁लड़ने": 8906,
      "▁चंद्रमा": 8907,
      "ोक्ताओं": 8908,
      "▁पूल": 8909,
      "▁अदिलाबाद": 8910,
      "▁अधिग्रहण": 8911,
      "▁लिए।": 8912,
      "▁अदिलाबादु": 8913,
      "▁करो": 8914,
      "▁बनावट": 8915,
      "▁क्रोम": 8916,
      "▁विधेय": 8917,
      "▁कागज": 8918,
      "-4": 8919,
      "किया": 8920,
      "हाइट": 8921,
      "स्थापित": 8922,
      "▁बुध": 8923,
      "▁27.18": 8924,
      "▁सरलता": 8925,
      "▁सोसाइटी": 8926,
      "ost": 8927,
      "▁इन्द": 8928,
      "राय,": 8929,
      "चेस्टर": 8930,
      "▁डीएनए": 8931,
      "▁लौह": 8932,
      "▁तमाम": 8933,
      "डेल": 8934,
      "▁कष्ट": 8935,
      "▁वकी": 8936,
      "▁भीतरी": 8937,
      "काव": 8938,
      "▁सुदूर": 8939,
      "िंग्स": 8940,
      "▁गुवाहाटी": 8941,
      "वार,": 8942,
      "▁जरूर": 8943,
      "▁प्रदेश,": 8944,
      "▁अवयव": 8945,
      "ानिया": 8946,
      "▁प्रां": 8947,
      "ूसरे": 8948,
      "शियम": 8949,
      "▁पैदल": 8950,
      "land": 8951,
      "▁बचे": 8952,
      "कोत्तर": 8953,
      "क्की": 8954,
      "▁सहारनपुर": 8955,
      "▁तेर": 8956,
      "▁परिचित": 8957,
      "▁सिकंदर": 8958,
      "▁पारिवारिक": 8959,
      "▁1974": 8960,
      "▁परिवर्तनों": 8961,
      "▁संभवत:": 8962,
      "ादून": 8963,
      "▁देहर": 8964,
      "ल्लाह": 8965,
      "प्ति": 8966,
      "▁जितनी": 8967,
      "▁सार्वभौ": 8968,
      "▁खार": 8969,
      "ोजक": 8970,
      "▁उपयोगिता": 8971,
      "िल्‍": 8972,
      "▁अधिवेशन": 8973,
      "चरित": 8974,
      "▁पें": 8975,
      "सेट": 8976,
      "▁\"ग": 8977,
      "क्ख": 8978,
      "▁इतालवी": 8979,
      "//": 8980,
      "▁प्रामाण": 8981,
      "▁आश्व": 8982,
      "▁मुग़ल": 8983,
      "▁टेक्स": 8984,
      "▁भि": 8985,
      "▁रहकर": 8986,
      "▁बैल": 8987,
      "▁लौटने": 8988,
      "▁भंडार": 8989,
      "ुज": 8990,
      "▁पत्रों": 8991,
      "▁कॉलेज,": 8992,
      "▁सिक्किम": 8993,
      "▁थॉमस": 8994,
      "▁कोले": 8995,
      "▁डैव": 8996,
      "▁व्यतीत": 8997,
      "▁सीरिया": 8998,
      "काशी": 8999,
      "▁निकटतम": 9000,
      "▁नगरी": 9001,
      "ृंगार": 9002,
      "▁व्यस्त": 9003,
      "▁पहाड़ों": 9004,
      "▁मास्टर": 9005,
      "▁पुर्तगाल": 9006,
      "▁सिंगापुर": 9007,
      "▁पेंट": 9008,
      "▁अम्ब": 9009,
      "▁में.": 9010,
      "ांच": 9011,
      "मापुर": 9012,
      "फ़्ट": 9013,
      "▁बीच,": 9014,
      "ंभव": 9015,
      "ध्याय": 9016,
      "ढ़े": 9017,
      "▁250": 9018,
      "▁तेज़": 9019,
      "▁ड्राइव": 9020,
      "▁भाजपा": 9021,
      "घा": 9022,
      "▁पंथ": 9023,
      "ंतुओं": 9024,
      "▁बढ़ाया": 9025,
      "▁रचनात्मक": 9026,
      "बोर्ड": 9027,
      "▁इटावा": 9028,
      "▁विक्टोर": 9029,
      "िपि": 9030,
      "▁ढाल": 9031,
      "▁डालने": 9032,
      "दत्त": 9033,
      "फ्ल": 9034,
      "▁फरी": 9035,
      "▁रायपुर": 9036,
      "वृ": 9037,
      "▁यम": 9038,
      "▁मेक्स": 9039,
      "▁संतोष": 9040,
      "▁गान्": 9041,
      "▁मानकों": 9042,
      "▁परिस्थिति": 9043,
      "▁शानदार": 9044,
      "▁पार्वती": 9045,
      "per": 9046,
      "▁कथित": 9047,
      "▁भेंट": 9048,
      "किट": 9049,
      "तरनाक": 9050,
      "▁महाराणा": 9051,
      "िकारक": 9052,
      "रचना": 9053,
      "▁खून": 9054,
      "▁अपमान": 9055,
      "▁एजेंट": 9056,
      "ओँ": 9057,
      "▁भले": 9058,
      "▁साई": 9059,
      "▁खाल": 9060,
      "ंबित": 9061,
      "▁पिंड": 9062,
      "▁निरीक्षण": 9063,
      "कने": 9064,
      "▁तंज": 9065,
      "्वल": 9066,
      "▁47": 9067,
      "▁लीला": 9068,
      "पनिवेश": 9069,
      "▁लक्ष्मण": 9070,
      "▁गोस": 9071,
      "▁बार-बार": 9072,
      ":00": 9073,
      "▁गोत्र": 9074,
      "▁समझी": 9075,
      "▁1954": 9076,
      "▁एलिज़ा": 9077,
      "▁गर्भा": 9078,
      "▁वर्षीय": 9079,
      "▁स्थापत्य": 9080,
      "डा,": 9081,
      "▁बलिया": 9082,
      "▁Y": 9083,
      "▁क्रू": 9084,
      "ष्ठा": 9085,
      "▁देहरादून": 9086,
      "मण्डल": 9087,
      "ादर": 9088,
      "▁पैट": 9089,
      "व्यापी": 9090,
      "▁सैद्धांतिक": 9091,
      "ापूर्व": 9092,
      "टित": 9093,
      "▁अमी": 9094,
      "▁काँ": 9095,
      "▁इनकार": 9096,
      "▁फ़िल": 9097,
      "▁ब्रह्माण्ड": 9098,
      "▁वस्तुतः": 9099,
      "://": 9100,
      "▁दाल": 9101,
      "ास,": 9102,
      "▁सकल": 9103,
      "▁1961": 9104,
      "▁बहुधा": 9105,
      "ai": 9106,
      "शेष": 9107,
      "▁जाट": 9108,
      "राचार्य": 9109,
      "▁स्पी": 9110,
      "ory": 9111,
      "▁सतत": 9112,
      "▁अक्षरों": 9113,
      "ब्लू": 9114,
      "वेट": 9115,
      "▁आए।": 9116,
      "▁नदियाँ": 9117,
      "▁क़ान": 9118,
      "▁85.45": 9119,
      "▁यादव": 9120,
      "▁कुशीनगर": 9121,
      "िवि": 9122,
      "्सन": 9123,
      "माय": 9124,
      "▁'द": 9125,
      "▁1966": 9126,
      "▁इंटरनेशनल": 9127,
      "▁मुरादाबाद": 9128,
      "घन": 9129,
      "दह": 9130,
      "▁इंडोनेशिया": 9131,
      "▁आवासीय": 9132,
      "▁18वीं": 9133,
      "▁शिवलिंग": 9134,
      "▁विलयन": 9135,
      "▁गज": 9136,
      "▁फलों": 9137,
      "▁फसलों": 9138,
      "▁स्टेश": 9139,
      "कलन": 9140,
      "▁विदेशों": 9141,
      "▁प्रिंस": 9142,
      "85": 9143,
      "फन": 9144,
      "हिर": 9145,
      "▁चिर": 9146,
      "▁फैजाबाद": 9147,
      "▁उठाने": 9148,
      "▁लगाकर": 9149,
      "▁ख़ास": 9150,
      "unt": 9151,
      "ंघम": 9152,
      "▁प्राद": 9153,
      "▁त्यौ": 9154,
      "▁जागर": 9155,
      "▁मिर्जापुर": 9156,
      "▁आज्ञा": 9157,
      "▁जाएँ": 9158,
      "▁सेकंड": 9159,
      "▁शाहजहां": 9160,
      "-जन": 9161,
      "यां": 9162,
      "▁रहा,": 9163,
      "▁उपयोगकर्ताओं": 9164,
      "▁आवाज़": 9165,
      "▁जिम्मेदारी": 9166,
      "▁मांसपेश": 9167,
      "▁रूढ़": 9168,
      "▁ओजोन": 9169,
      "▁अध्ययनों": 9170,
      "मिन": 9171,
      "▁एट": 9172,
      "▁उपजा": 9173,
      "▁कम्युन": 9174,
      "▁स्तम्भ": 9175,
      "▁इमारतों": 9176,
      "ऑक्साइड": 9177,
      "▁चूँ": 9178,
      "र्तक": 9179,
      "-3": 9180,
      "s.": 9181,
      "▁संदेह": 9182,
      "▁सर्दियों": 9183,
      "▁कुरु": 9184,
      "▁अमृतसर": 9185,
      "▁कठिनाई": 9186,
      "so": 9187,
      "▁आर्म": 9188,
      "का,": 9189,
      "▁था;": 9190,
      "▁समझते": 9191,
      "▁आयन": 9192,
      "▁अभयार": 9193,
      "▁ईरानी": 9194,
      "▁अटलांट": 9195,
      "प्रसाद": 9196,
      "ओं,": 9197,
      "ूल्य": 9198,
      "▁अंडर": 9199,
      "▁श्याम": 9200,
      "ण्डा": 9201,
      "▁पर्वतमाला": 9202,
      "ंदगी": 9203,
      "▁श्रीमती": 9204,
      "ism": 9205,
      "▁संबोधित": 9206,
      "कस": 9207,
      "द,": 9208,
      "या,": 9209,
      "▁गयी।\n": 9210,
      "▁25°0": 9211,
      "▁शैक्षणिक": 9212,
      ".एस.": 9213,
      "▁एलिज़ाबेथ": 9214,
      "8′": 9215,
      "ंती": 9216,
      "वारा": 9217,
      "▁कृतियों": 9218,
      "जिन": 9219,
      "ोध्या": 9220,
      "▁उर्जा": 9221,
      "▁ऐंड": 9222,
      "ुलर": 9223,
      "▁यूनियन": 9224,
      "▁करेगा।": 9225,
      "-7": 9226,
      "▁दिव्य": 9227,
      "▁गुरुत्वाकर्षण": 9228,
      "▁गले": 9229,
      "ूर,": 9230,
      "▁यूनान": 9231,
      "36′": 9232,
      "▁टिकट": 9233,
      "23": 9234,
      "निर": 9235,
      "▁लैंड": 9236,
      "▁ओपन": 9237,
      "ath": 9238,
      "-5": 9239,
      "ैंट": 9240,
      "ंगनी": 9241,
      "▁चालू": 9242,
      "▁इथ": 9243,
      "▁भागवत": 9244,
      "▁रणनीति": 9245,
      "▁सामंत": 9246,
      "▁परिवेश": 9247,
      "म्परिक": 9248,
      "▁मासिक": 9249,
      "▁सिन्धु": 9250,
      "▁नारी": 9251,
      "र्स्ट": 9252,
      "▁|च": 9253,
      "▁120": 9254,
      "▁त्योहार": 9255,
      "▁धाम": 9256,
      "संस्": 9257,
      "▁चौहान": 9258,
      "▁मरु": 9259,
      "▁अफ़ग़ानिस्तान": 9260,
      "ष्ठान": 9261,
      "▁64": 9262,
      "▁अंतराल": 9263,
      "▁आकाशगंगा": 9264,
      "ग्स": 9265,
      "मों": 9266,
      "▁बंट": 9267,
      "ाहित्य": 9268,
      "ेडी": 9269,
      "▁लाए": 9270,
      "-पत्र": 9271,
      "▁बिलकुल": 9272,
      "▁उम्मीदवार": 9273,
      "▁स्नातकोत्तर": 9274,
      "▁मैनपुर": 9275,
      "▁प्रेमचंद": 9276,
      "▁पेट्रोल": 9277,
      "▁इमाम": 9278,
      "▁योद्धा": 9279,
      "▁अफगानिस्तान": 9280,
      "▁परिकल्पना": 9281,
      "सीड": 9282,
      "▁पूर्वा": 9283,
      "▁प्राधिकरण": 9284,
      "▁पार्ट": 9285,
      "▁1955": 9286,
      "▁रायब": 9287,
      "▁सिरे": 9288,
      ".\"": 9289,
      "हारा": 9290,
      "▁पावर": 9291,
      "▁लूट": 9292,
      "▁एकीकरण": 9293,
      "▁इस्ती": 9294,
      "▁मानवता": 9295,
      "▁बर्मा": 9296,
      "▁पिछली": 9297,
      "▁पहलू": 9298,
      "▁असी": 9299,
      "▁औस": 9300,
      "्स्य": 9301,
      "▁|व": 9302,
      "▁अक्षय": 9303,
      "▁संलग्न": 9304,
      "▁कृष": 9305,
      "▁स्मरण": 9306,
      "▁us": 9307,
      "▁चलचित्र": 9308,
      "बेरिया": 9309,
      "पना": 9310,
      "शिष्ट": 9311,
      "▁ब्या": 9312,
      "ीनो": 9313,
      "▁देशी": 9314,
      "▁बेग": 9315,
      "▁सर्वर": 9316,
      "▁यूएस": 9317,
      "▁चीज़": 9318,
      "▁पत्थरों": 9319,
      "▁एक-दूसरे": 9320,
      "▁चूँकि": 9321,
      "धात": 9322,
      "▁जेन": 9323,
      "संग्रह": 9324,
      "वण": 9325,
      "▁बिन": 9326,
      "▁टॉम": 9327,
      "▁पैरों": 9328,
      "▁टेक्": 9329,
      "▁शेख": 9330,
      "▁घुस": 9331,
      "rac": 9332,
      "▁है।\"\n": 9333,
      "स्सी": 9334,
      "ल्हा": 9335,
      "▁व्यय": 9336,
      "▁बैंकों": 9337,
      "▁आवरण": 9338,
      "▁कलात्मक": 9339,
      "▁ईसापूर्व": 9340,
      "▁पहलुओं": 9341,
      "ैप": 9342,
      "▁निल": 9343,
      "▁बदलकर": 9344,
      "▁\"एक": 9345,
      "माना": 9346,
      "▁आइंस्टीन": 9347,
      "िक्": 9348,
      "▁डिवी": 9349,
      "▁छेद": 9350,
      "▁नामांकन": 9351,
      "▁पारस्प": 9352,
      "▁हमारा": 9353,
      "▁ch": 9354,
      "▁सम्भव": 9355,
      "▁अनाज": 9356,
      "फ्फरनगर": 9357,
      "▁अंटार्कट": 9358,
      "हु": 9359,
      "▁ओलम्प": 9360,
      "▁खाता": 9361,
      "▁51": 9362,
      "▁निर्माताओं": 9363,
      "म्र": 9364,
      "▁विश्वसनीय": 9365,
      "ated": 9366,
      "▁नती": 9367,
      "▁संक्षेप": 9368,
      "▁46": 9369,
      "▁दरवाज": 9370,
      "ांकी": 9371,
      "▁नाइट्रोजन": 9372,
      "ुस्तानी": 9373,
      "▁पत्रकारिता": 9374,
      "▁प्रभाग": 9375,
      "▁गोंडा": 9376,
      "ए.": 9377,
      "च्य": 9378,
      "▁स्वीकृत": 9379,
      "▁बढ़ी": 9380,
      "▁1958": 9381,
      "▁फ़्रांस": 9382,
      "2°E": 9383,
      "▁बाला": 9384,
      "▁अपवाद": 9385,
      "▁मूलभूत": 9386,
      "▁प्रबंधक": 9387,
      "▁अपरा": 9388,
      "▁लुप्त": 9389,
      "-ड": 9390,
      "यात्रा": 9391,
      "▁आचरण": 9392,
      "▁स्वप": 9393,
      "िश्र": 9394,
      "च्छिक": 9395,
      "▁गोविन्द": 9396,
      "▁ग्रीष्मकालीन": 9397,
      "-9": 9398,
      "आंग": 9399,
      "▁प्रयाग": 9400,
      "▁करियर": 9401,
      "▁56": 9402,
      "▁मराठा": 9403,
      "▁नक्षत्र": 9404,
      "43": 9405,
      "मर्श": 9406,
      "▁...": 9407,
      "▁यांत्रिकी": 9408,
      "▁अयोध्या": 9409,
      "▁होंगे।": 9410,
      "▁सशस्त्र": 9411,
      "▁रौ": 9412,
      "▁जिसको": 9413,
      "िशन": 9414,
      "ाई,": 9415,
      "▁झर": 9416,
      "▁स्वयंसे": 9417,
      "▁कर्तव्य": 9418,
      "▁आजमगढ़": 9419,
      "▁ओड": 9420,
      "▁विषाणु": 9421,
      "▁समाजशास्त्र": 9422,
      "▁1942": 9423,
      "▁खुर्द": 9424,
      "ट्रिक": 9425,
      "▁हिन्दुओं": 9426,
      "▁धरा": 9427,
      "▁अव्य": 9428,
      "▁आदि।\n": 9429,
      "▁कारोबार": 9430,
      "▁कहकर": 9431,
      "ern": 9432,
      "▁रक्तचाप": 9433,
      "▁आस्था": 9434,
      "बीआई": 9435,
      "▁पारम्परिक": 9436,
      "▁सोलहवीं": 9437,
      "▁अस्वीकार": 9438,
      "चेंज": 9439,
      "वो": 9440,
      "ारू": 9441,
      "क्तियों": 9442,
      "eg": 9443,
      "उद्दीन": 9444,
      "ौरी": 9445,
      "▁तथ्यों": 9446,
      "▁फर्रु": 9447,
      "मंच": 9448,
      "▁दण्ड": 9449,
      "▁गे": 9450,
      "▁किरा": 9451,
      "▁सीधी": 9452,
      "▁हिन्दुस्तान": 9453,
      "▁पुनर": 9454,
      "▁आंकड़ों": 9455,
      "िडा": 9456,
      "्नी": 9457,
      "▁हार्म": 9458,
      "ियमित": 9459,
      "▁युद्धों": 9460,
      "▁वाहनों": 9461,
      "▁जवाहरलाल": 9462,
      "▁प्रतिरूप": 9463,
      "ब्दियों": 9464,
      "▁1968": 9465,
      "ign": 9466,
      "▁बँ": 9467,
      "▁हमलों": 9468,
      "डी,": 9469,
      "▁ब्लॉक": 9470,
      "▁मुलाकात": 9471,
      "▁गिरजाघर": 9472,
      "▁मैनपुरी": 9473,
      "ूलन": 9474,
      "▁हुए।\n": 9475,
      "▁72": 9476,
      "-एक": 9477,
      "▁प्रतिद्वंद्वी": 9478,
      "▁पाउंड": 9479,
      "▁कविताओं": 9480,
      ",7": 9481,
      "▁शव": 9482,
      "दानिक": 9483,
      "▁बिजन": 9484,
      "▁सके।\n": 9485,
      "135": 9486,
      "▁गुट": 9487,
      "▁पिघ": 9488,
      "akistan": 9489,
      "▁हानिकारक": 9490,
      "▁उदयपुर": 9491,
      "▁पिथोरा": 9492,
      "▁औसतन": 9493,
      "धियों": 9494,
      "▁मैने": 9495,
      "▁चेहरे": 9496,
      "▁वितरित": 9497,
      "▁बिहारी": 9498,
      "▁ताकत": 9499,
      "▁परेशान": 9500,
      "ple": 9501,
      "▁कां": 9502,
      "▁वियत": 9503,
      "▁वुड": 9504,
      "▁करार": 9505,
      "िपत्य": 9506,
      "▁झिल्ली": 9507,
      "▁मरने": 9508,
      "▁सेंट्रल": 9509,
      ",\n": 9510,
      "▁अदा": 9511,
      "ांख्य": 9512,
      "▁ओवर": 9513,
      "▁1921": 9514,
      "▁लाइव": 9515,
      "▁पिट": 9516,
      "नीकरण": 9517,
      "वाद,": 9518,
      "▁चौड़ाई": 9519,
      "ुगु": 9520,
      "▁स्क्व": 9521,
      "▁गाथा": 9522,
      "▁पारस्परिक": 9523,
      "न्च": 9524,
      "▁जीवनी": 9525,
      "▁पूर्णतया": 9526,
      "▁1946": 9527,
      "▁प्रशिक्षित": 9528,
      "▁बाराब": 9529,
      "▁मऊ": 9530,
      "▁बीकाने": 9531,
      "▁कैद": 9532,
      "▁मामला": 9533,
      "▁कश्मीरी": 9534,
      "▁अभयारण्य": 9535,
      "बली": 9536,
      "न्ज़": 9537,
      "ॉयड": 9538,
      "▁सीतापुर": 9539,
      "▁सीखने": 9540,
      "चस्प": 9541,
      "पल्ली": 9542,
      "वृत्त": 9543,
      "▁शस्त्र": 9544,
      "▁हैं\n": 9545,
      "▁पाश्चात": 9546,
      "रेटिंग": 9547,
      "-ख": 9548,
      "▁99": 9549,
      "▁वक्र": 9550,
      "▁रहित": 9551,
      "▁बाब": 9552,
      "▁आपका": 9553,
      "▁तेलुग": 9554,
      "▁हल्के": 9555,
      "▁सिंधु": 9556,
      "▁कोच": 9557,
      "▁Th": 9558,
      "▁वल्ल": 9559,
      "▁थोड़े": 9560,
      "र्मित": 9561,
      "▁अंबेडकर": 9562,
      "हस": 9563,
      "▁दुर": 9564,
      "▁राक्ष": 9565,
      "▁क़ुर": 9566,
      "▁बुलन्द": 9567,
      "▁अवसाद": 9568,
      "तो": 9569,
      "श्त": 9570,
      "▁दर्पण": 9571,
      "▁अन्यथा": 9572,
      "▁ओम": 9573,
      "▁बॉण्ड": 9574,
      "▁पीछा": 9575,
      "▁एपिस": 9576,
      "▁विस": 9577,
      "▁राइस": 9578,
      "▁बैक्टीरिया": 9579,
      "pt": 9580,
      "छित": 9581,
      "▁नली": 9582,
      "ानन्द": 9583,
      "ंचित": 9584,
      "▁विधेयक": 9585,
      "42": 9586,
      "▁इर्द": 9587,
      "▁कार्यकर्ता": 9588,
      "▁ऊष्मा": 9589,
      "▁आपे": 9590,
      "▁देवनागरी": 9591,
      "▁सुविधाएं": 9592,
      "▁नवी": 9593,
      "▁रसी": 9594,
      "▁ख़ुदा": 9595,
      "▁मुद्दे": 9596,
      "ड़ी,": 9597,
      "▁उपलब्धि": 9598,
      "▁बिजनौर": 9599,
      "ोइ": 9600,
      "▁वाट": 9601,
      "▁संस्थान,": 9602,
      "▁तूफ": 9603,
      "▁|है": 9604,
      "▁हरदो": 9605,
      "▁उन्म": 9606,
      "▁ए.": 9607,
      "▁सैल": 9608,
      "▁विरू": 9609,
      "°08′": 9610,
      "▁बंगलौर": 9611,
      "▁पाश्चात्य": 9612,
      "iz": 9613,
      "िओ": 9614,
      "िर्द": 9615,
      "▁खतरनाक": 9616,
      "त्‌": 9617,
      "▁अवकाश": 9618,
      "▁झारखंड": 9619,
      "▁टोक": 9620,
      "▁उत्परिव": 9621,
      "▁संस्कृतियों": 9622,
      "▁\"श": 9623,
      "▁1963": 9624,
      "▁राहुल": 9625,
      "▁​​": 9626,
      "झे": 9627,
      "स्तान": 9628,
      "वेस्ट": 9629,
      "ुपति": 9630,
      "िस्को": 9631,
      "▁बांदा": 9632,
      "▁अनुयाय": 9633,
      "▁निजाम": 9634,
      "फ़्त": 9635,
      "कोहल": 9636,
      "चिकित्सा": 9637,
      "▁पिथोरागढ": 9638,
      "II": 9639,
      "▁सीज़न": 9640,
      "▁देखता": 9641,
      "िनेट": 9642,
      "▁भ्रमण": 9643,
      "▁गाया": 9644,
      "▁चोल": 9645,
      "▁पैलेस": 9646,
      "▁ख़त्म": 9647,
      "▁विद्युत्": 9648,
      "▁आवेदन": 9649,
      "▁ऑव": 9650,
      "▁सूडान": 9651,
      "▁मदुर": 9652,
      "▁योजनाओं": 9653,
      "▁बेहतरी": 9654,
      "40′′N": 9655,
      "▁रविदास": 9656,
      "▁दुसरे": 9657,
      "▁समय-समय": 9658,
      "▁व्ह": 9659,
      "ोग्राफी": 9660,
      "▁चिंतन": 9661,
      "▁राजीव": 9662,
      "▁नस्ल": 9663,
      "▁डु": 9664,
      "▁असुर": 9665,
      "▁प्रसिद्धि": 9666,
      "▁सूचीबद्ध": 9667,
      "▁श्रावस्ती": 9668,
      "शिंगटन": 9669,
      "▁\"उ": 9670,
      "▁नमूने": 9671,
      "▁प्रतिरक्षा": 9672,
      "▁देवरिया": 9673,
      "▁रायबरेली": 9674,
      "▁कंब": 9675,
      "▁जेर": 9676,
      "▁प्रभ": 9677,
      "▁एंट": 9678,
      "▁एक्ट": 9679,
      "▁चिट": 9680,
      "दरलैंड": 9681,
      "▁ताराम": 9682,
      "▁महामाया": 9683,
      "ड़ा,": 9684,
      "▁42": 9685,
      "▁US": 9686,
      "▁बीसवीं": 9687,
      "▁सफ़ेद": 9688,
      "ोस्ट": 9689,
      "▁दाद": 9690,
      "न्ने": 9691,
      "▁साथियों": 9692,
      "▁चाहती": 9693,
      "आईटी": 9694,
      "▁चन्द्रगुप्त": 9695,
      "▁उपनिषदों": 9696,
      "ड्": 9697,
      "डेट": 9698,
      "ादि": 9699,
      "▁अत्याचार": 9700,
      "▁लखीमपुर": 9701,
      "▁वकाल": 9702,
      "▁जनन": 9703,
      "ust": 9704,
      "दय": 9705,
      "▁खुली": 9706,
      "▁न्यायिक": 9707,
      "िकता": 9708,
      "▁औपनिवेश": 9709,
      "ापति": 9710,
      "▁तुलनात्मक": 9711,
      "▁नैदानिक": 9712,
      "▁पूछा": 9713,
      "बै": 9714,
      "ॉइड": 9715,
      "्यूब": 9716,
      "▁डी.": 9717,
      "▁सर्वोत्तम": 9718,
      "38′′E": 9719,
      "ेरी": 9720,
      "▁घुमा": 9721,
      "तावनी": 9722,
      "▁बेंगल": 9723,
      "ीर्ण": 9724,
      "ेली": 9725,
      "▁वाज": 9726,
      "▁|न": 9727,
      "▁भूभाग": 9728,
      "▁दिखाने": 9729,
      "▁फर्रुखा": 9730,
      "डों": 9731,
      "▁सवाई": 9732,
      "▁पॉप": 9733,
      "▁डेली": 9734,
      "▁सारणी": 9735,
      "▁माइक्रोसॉफ्ट": 9736,
      "▁बयान": 9737,
      "▁हीरो": 9738,
      "▁बढ़कर": 9739,
      "▁रंगमंच": 9740,
      "▁:09": 9741,
      "▁:135": 9742,
      "▁फुले": 9743,
      "▁गाजियाबाद": 9744,
      "ानंद": 9745,
      "▁जीता।": 9746,
      "▁न्यूर": 9747,
      "ागो": 9748,
      "▁श्रीनगर": 9749,
      "uc": 9750,
      "▁क्रान्ति": 9751,
      "▁दर्शनीय": 9752,
      "▁सोशल": 9753,
      "▁अंकों": 9754,
      "▁दिलचस्प": 9755,
      "▁रुपए": 9756,
      "▁कितना": 9757,
      ":30": 9758,
      "▁प्राचीनतम": 9759,
      "▁इंस्टी": 9760,
      "▁Pakistan": 9761,
      "▁प्रयोजन": 9762,
      "▁माइक्रो": 9763,
      "▁उष्णकटिबंधीय": 9764,
      "▁गान्धी": 9765,
      "गी।\n": 9766,
      "▁वसंत": 9767,
      "▁आश्रय": 9768,
      "▁वकालत": 9769,
      "▁शपथ": 9770,
      "▁कलाम": 9771,
      "ाकू": 9772,
      "▁एक्स-रे": 9773,
      "▁उपासना": 9774,
      "▁विरूद्ध": 9775,
      "वर्थ": 9776,
      "▁बहुल": 9777,
      "▁लोकतांत्रिक": 9778,
      "▁पूर्णतः": 9779,
      "▁वस्तुत:": 9780,
      "▁दृश्यों": 9781,
      "▁सीटों": 9782,
      "ence": 9783,
      "▁रंगीन": 9784,
      "▁त्रिप": 9785,
[...]
